<unk>	0
<s>	0
</s>	0
▁	-3.35171
▁1	-3.58055
▁0	-3.71505
.	-3.73003
▁9	-4.57389
..	-4.60304
이	-4.62401
▁영화	-4.80963
...	-4.84835
▁8	-4.85697
의	-4.92911
가	-4.9336
도	-4.98852
는	-5.06219
▁7	-5.15455
을	-5.18478
,	-5.2001
에	-5.24542
고	-5.28897
은	-5.37728
▁6	-5.38057
다	-5.40835
▁10	-5.46614
▁5	-5.46901
지	-5.49121
?	-5.56723
한	-5.60615
▁3	-5.67975
▁4	-5.70058
를	-5.74734
▁너무	-5.76089
▁2	-5.7702
만	-5.8232
!	-5.82538
로	-5.85191
▁이	-5.86203
▁정말	-5.89351
게	-5.96314
나	-6.03184
영화	-6.05728
▁진짜	-6.10745
~	-6.12667
과	-6.14402
기	-6.19177
어	-6.21553
리	-6.28427
라	-6.30976
하고	-6.31688
인	-6.33392
으로	-6.36784
점	-6.37581
아	-6.38558
네	-6.42587
에서	-6.45992
▁잘	-6.46685
▁안	-6.4715
▁그	-6.51604
서	-6.53487
요	-6.53942
들	-6.54266
해	-6.54479
와	-6.56185
....	-6.57675
▁왜	-6.59922
▁아	-6.59944
▁다	-6.61025
하는	-6.61508
!!	-6.61993
▁더	-6.65355
▁수	-6.6538
▁이런	-6.65431
스	-6.65961
네요	-6.68629
거	-6.69237
자	-6.73641
음	-6.74964
면	-6.76765
▁그냥	-6.78902
▁본	-6.79213
대	-6.8229
▁드라마	-6.84973
수	-6.85247
시	-6.85291
지만	-6.86695
하게	-6.91185
함	-6.91823
야	-6.92124
▁내	-6.92361
니	-6.92792
사	-6.92949
하	-6.94542
▁보고	-6.94744
하다	-6.94923
일	-6.97125
▁한	-6.97297
주	-6.97606
▁연기	-6.9849
▁평점	-7.0039
이다	-7.03245
▁영화를	-7.03608
진	-7.04449
여	-7.04916
미	-7.05309
▁좀	-7.05946
드	-7.06638
우	-7.07461
▁최고	-7.08787
데	-7.08868
성	-7.10199
▁못	-7.10462
할	-7.13481
는데	-7.13603
임	-7.13904
던	-7.14741
▁나	-7.14758
▁쓰레기	-7.15301
들이	-7.15376
보다	-7.15631
보	-7.15799
▁참	-7.16206
▁이거	-7.16356
▁ᄏᄏ	-7.16414
▁봤는데	-7.17168
구	-7.17756
▁최고의	-7.17984
▁없는	-7.1914
신	-7.1954
▁스토리	-7.19782
1	-7.20782
냐	-7.21056
▁영화가	-7.21085
까지	-7.21563
정	-7.21821
▁없다	-7.2184
▁영화는	-7.22111
해서	-7.23211
장	-7.2382
▁내가	-7.24071
▁완전	-7.24074
듯	-7.25248
▁이건	-7.25789
▁개	-7.26916
상	-7.27056
▁보는	-7.27392
!!!	-7.27666
▁다시	-7.27865
▁있는	-7.28978
안	-7.29156
ᄏᄏ	-7.29227
부	-7.29323
중	-7.30127
려	-7.30135
▁것	-7.30293
치	-7.30758
▁좋은	-7.31721
▁말	-7.33691
적	-7.33857
마	-7.33864
^^	-7.34477
오	-7.36233
▁이렇게	-7.36596
전	-7.37175
트	-7.37216
▁이게	-7.37394
▁뭐	-7.38119
▁난	-7.38231
건	-7.39003
원	-7.3911
히	-7.39789
▁지	-7.40292
러	-7.40464
랑	-7.40576
보고	-7.41152
그	-7.42195
질	-7.42329
▁오	-7.43061
화	-7.43067
2	-7.43978
세	-7.45213
~~	-7.45334
▁보	-7.45982
년	-7.47182
때	-7.4788
▁넘	-7.48544
내	-7.48624
▁전	-7.48849
ᄏ	-7.4909
▁평점이	-7.49341
물	-7.49643
개	-7.49757
비	-7.49983
분	-7.50208
라고	-7.50532
▁작품	-7.51268
▁많이	-7.51774
▁하	-7.51957
▁저	-7.52318
적인	-7.53436
▁재밌게	-7.53624
;;	-7.5404
인데	-7.54095
▁볼	-7.55343
습니다	-7.55585
▁역시	-7.56304
▁또	-7.56553
▁별로	-7.56775
▁무	-7.56871
▁재미	-7.57185
것	-7.59119
▁주	-7.59592
용	-7.60299
감	-7.60782
▁그리고	-7.61433
선	-7.61672
▁생각	-7.6267
소	-7.62945
▁감동	-7.6346
입니다	-7.64603
제	-7.65795
▁마지막	-7.6599
??	-7.65999
같은	-7.6729
진짜	-7.67372
▁꼭	-7.67611
▁중	-7.67894
했다	-7.68062
▁하는	-7.68122
하지	-7.68545
식	-7.69087
무	-7.69133
'	-7.69163
▁감독	-7.69594
▁시간	-7.69811
급	-7.70372
말	-7.70748
울	-7.71522
어요	-7.71567
더	-7.71847
▁액션	-7.72098
동	-7.72478
▁아깝다	-7.72736
이나	-7.72911
영	-7.73396
▁ᄏᄏᄏ	-7.73599
▁별	-7.73897
부터	-7.73905
편	-7.73917
▁이야기	-7.74254
▁기대	-7.74394
줄	-7.74976
▁무슨	-7.75679
걸	-7.7578
▁가장	-7.758
▁없고	-7.75975
없는	-7.76007
)	-7.76214
본	-7.76457
호	-7.76718
▁아니	-7.76771
▁유	-7.77014
▁대	-7.77129
유	-7.77218
란	-7.77349
▁지금	-7.7737
▁김	-7.7769
된	-7.77724
▁명작	-7.77764
씨	-7.78182
드라마	-7.78545
▁하나	-7.78647
▁비	-7.7873
ᄏᄏᄏ	-7.78755
작	-7.79036
▁다른	-7.79282
▁사	-7.79406
3	-7.7961
▁정	-7.80001
좀	-7.80013
디	-7.81633
라는	-7.81747
▁조	-7.82156
▁미	-7.82752
있는	-7.82858
▁할	-7.82862
ᅲᅲ	-7.82924
▁어	-7.83011
▁보면	-7.83519
조	-7.83575
▁자	-7.83649
▁사랑	-7.83693
▁마	-7.8426
에게	-7.84304
남	-7.84436
▁만든	-7.84548
▁한국	-7.8481
연	-7.85303
당	-7.85345
으면	-7.85367
▁처음	-7.86199
;	-7.86843
위	-7.86919
너무	-7.86944
모	-7.87181
▁일	-7.87646
▁거	-7.87738
▁기	-7.88038
▁좋아	-7.88345
▁배우	-7.88443
▁돈	-7.88615
군	-7.88695
▁느낌	-7.89089
생	-7.89501
▁신	-7.89593
▁두	-7.89872
▁일본	-7.89875
크	-7.90399
린	-7.91395
심	-7.91566
▁ᄏ	-7.92174
한다	-7.92278
살	-7.93048
간	-7.93527
르	-7.94036
운	-7.94039
노	-7.94079
레	-7.94421
▁모	-7.94715
바	-7.94973
인가	-7.95192
▁짱	-7.95193
▁ᅲᅲ	-7.9525
▁연출	-7.9547
인지	-7.95563
래	-7.9588
준	-7.95968
▁내용	-7.96512
▁제	-7.9699
긴	-7.97043
명	-7.97683
정말	-7.9808
▁말이	-7.98176
▁영화다	-7.98218
워	-7.98568
지는	-7.98824
루	-7.9914
ᅲ	-7.99404
처럼	-7.99488
프	-7.99975
들의	-8.00196
▁같은	-8.00733
난	-8.01046
▁와	-8.01061
류	-8.01094
합니다	-8.01232
▁'	-8.01353
▁사람	-8.01649
두	-8.0196
▁끝까지	-8.02068
▁좋다	-8.02486
▁해	-8.02554
었다	-8.02705
경	-8.03127
타	-8.03246
▁ᅳᅳ	-8.03358
단	-8.03524
민	-8.03951
▁부	-8.0409
▁소	-8.04264
▁시	-8.04652
▁있다	-8.05506
죠	-8.05565
▁장	-8.05872
연기	-8.06276
▁알	-8.06335
판	-8.06344
o	-8.06431
▁때	-8.06617
5	-8.06676
▁솔직히	-8.07205
▁여자	-8.0725
며	-8.07281
▁구	-8.07342
방	-8.07354
저	-8.07786
발	-8.08039
▁전혀	-8.08053
파	-8.08271
▁우	-8.08353
면서	-8.08549
티	-8.08718
터	-8.08835
▁뭔가	-8.09005
재	-8.09169
관	-8.09804
했던	-8.10025
차	-8.10026
▁하지만	-8.1012
▁재밌다	-8.10176
잘	-8.10359
▁애	-8.10551
국	-8.10788
▁ᄒᄒ	-8.10876
길	-8.10924
▁같다	-8.11121
림	-8.11197
후	-8.1188
번	-8.11931
희	-8.12057
▁아주	-8.12312
▁반	-8.12398
▁대한	-8.12453
되는	-8.12597
피	-8.12738
하나	-8.12761
▁봤다	-8.12812
▁굿	-8.13231
ᅳᅳ	-8.13294
▁최악	-8.13354
겨	-8.13515
하지만	-8.13585
▁만들어	-8.14309
▁대박	-8.14389
시간	-8.14413
▁인생	-8.14662
▁남	-8.14819
엔	-8.1493
▁바	-8.15025
▁봐도	-8.15245
(	-8.15409
▁아니라	-8.15652
이라	-8.15666
든	-8.15787
,,	-8.1592
하면	-8.16384
▁후	-8.16602
이랑	-8.16644
▁이상	-8.16645
구나	-8.1676
▁한번	-8.17421
▁최악의	-8.17769
들은	-8.17849
못	-8.17976
▁줄	-8.18246
▁배우들	-8.18255
체	-8.18275
▁많은	-8.18439
▁그런	-8.18901
때문에	-8.19252
▁모두	-8.19355
애	-8.19367
버	-8.19482
▁이영화	-8.19681
▁재미있게	-8.19729
없이	-8.20572
날	-8.2059
▁모든	-8.20968
e	-8.21132
▁되	-8.2138
▁실망	-8.21398
다가	-8.21712
▁이걸	-8.21837
▁스	-8.21928
▁재미없다	-8.22072
▁내내	-8.22113
-	-8.22153
▁어떻게	-8.22184
▁코미디	-8.22796
없다	-8.22885
▁계속	-8.22915
봤는데	-8.23405
박	-8.23437
으	-8.23465
▁내용이	-8.23483
▁나오는	-8.23747
▁장면	-8.24058
▁않고	-8.24115
적으로	-8.24131
ᄒᄒ	-8.24923
▁아닌	-8.24988
4	-8.25214
▁박	-8.25344
▁남자	-8.25689
▁보기	-8.26044
님	-8.26252
점도	-8.26909
▁불	-8.26954
형	-8.272
회	-8.27243
반	-8.27572
겠다	-8.27607
▁강	-8.28112
▁우리	-8.28745
키	-8.28834
지도	-8.2893
극	-8.29064
하네	-8.2939
▁없	-8.29554
▁반전	-8.29596
카	-8.29742
▁딱	-8.29894
되	-8.30009
▁그래도	-8.30238
한테	-8.30348
려고	-8.30546
▁기억	-8.30804
달	-8.31286
하기	-8.31286
하네요	-8.31505
▁스릴러	-8.31518
▁건	-8.31697
이라는	-8.31767
▁이해	-8.32035
▁주인공	-8.3206
현	-8.32136
▁끝	-8.32181
배	-8.32252
니까	-8.32356
역	-8.32712
▁공포	-8.3286
▁조금	-8.32896
보면	-8.33084
8	-8.33183
어서	-8.33189
스토리	-8.33537
▁하고	-8.33604
▁연기가	-8.33961
▁아니다	-8.34065
보는	-8.34763
▁아름다운	-8.34813
▁파	-8.35334
t	-8.35904
▁듯	-8.35954
▁망	-8.36101
▁피	-8.36171
▁제일	-8.36272
볼	-8.36416
▁제대로	-8.36465
공	-8.36476
▁요즘	-8.3663
▁배	-8.36669
석	-8.36994
▁만드는	-8.3735
!!!!	-8.37492
▁심	-8.37496
▁속	-8.37524
격	-8.37757
생각	-8.37932
속	-8.37993
져	-8.38022
▁눈	-8.38175
까	-8.38288
▁추천	-8.38305
▁욕	-8.38431
▁이제	-8.38485
점이	-8.38885
▁근데	-8.38937
▁나오	-8.39054
넘	-8.39081
▁노	-8.39233
문	-8.39255
예	-8.39338
▁애니	-8.39402
이고	-8.39429
▁공	-8.39489
▁개봉	-8.39592
▁감독이	-8.39766
10	-8.39917
d	-8.39974
▁연기도	-8.39994
없	-8.4023
▁않은	-8.40242
매	-8.40275
▁전개	-8.40398
♥	-8.40439
▁않는	-8.40472
다니	-8.40653
▁재밌	-8.40779
▁보다	-8.40802
▁여	-8.40919
▁웃	-8.4092
▁음악	-8.41127
▁절대	-8.4122
산	-8.41255
쳐	-8.41413
▁OO	-8.41432
▁싶다	-8.41724
▁나는	-8.41777
년대	-8.41793
▁성	-8.41827
~~~	-8.42078
▁스토리가	-8.42237
이란	-8.42271
▁재밋	-8.42273
▁울	-8.42315
릴	-8.42342
태	-8.42461
▁보다가	-8.42619
▁내용도	-8.42653
따	-8.42738
실	-8.43134
▁수준	-8.43402
코	-8.43408
▁동	-8.43415
정도	-8.43911
▁재	-8.43956
금	-8.43992
망	-8.4426
ᄒ	-8.44557
▁대사	-8.44725
즈	-8.4489
▁걸	-8.45091
▁원	-8.45434
▁공감	-8.45604
▁아니고	-8.4567
▁발	-8.45881
▁쓰	-8.45963
해요	-8.45964
▁영화의	-8.46082
▁예	-8.46713
▁남는	-8.47347
는거	-8.47363
움	-8.47391
▁막장	-8.47406
것도	-8.4751
▁만들	-8.47536
배우	-8.47561
ᄏᄏᄏᄏ	-8.47634
▁서	-8.47638
능	-8.47748
절	-8.47779
참	-8.47796
▁날	-8.47874
토	-8.48212
왜	-8.48384
등	-8.49218
들을	-8.49448
종	-8.49491
▁시간이	-8.49561
▁영화라고	-8.4961
양	-8.4983
▁캐릭터	-8.49851
건지	-8.50179
▁때문에	-8.50361
9	-8.504
최고	-8.50467
▁여운이	-8.50706
포	-8.50841
짱	-8.50926
ᅳ	-8.51017
▁정도	-8.51276
▁진	-8.51322
▁가족	-8.51371
▁미국	-8.51393
▁세	-8.5145
녀	-8.5164
사람	-8.51738
▁인간	-8.51968
인듯	-8.51979
▁아까운	-8.52015
장면	-8.52199
했는데	-8.52319
▁아직도	-8.52364
▁재미도	-8.52482
▁표현	-8.52542
▁재밌어요	-8.52645
▁연	-8.53047
▁초	-8.53146
뿐	-8.53346
▁영	-8.53371
죽	-8.53596
a	-8.53604
▁차	-8.53641
이라고	-8.53699
▁나름	-8.53878
평점	-8.54401
▁영화입니다	-8.54656
였다	-8.54701
▁걍	-8.5475
라도	-8.54862
었는데	-8.5496
▁엄청	-8.54997
▁원작	-8.55095
▁차라리	-8.55113
▁나온	-8.55277
해도	-8.55432
▁주는	-8.55804
▁사람들	-8.55965
주는	-8.5611
가는	-8.56326
▁진심	-8.5641
▁나도	-8.56501
학	-8.56632
▁좋았다	-8.56658
▁보면서	-8.56694
▁되는	-8.56705
던데	-8.56741
는게	-8.56804
▁도대체	-8.56822
▁결말	-8.56876
▁스토리도	-8.56949
집	-8.57052
점은	-8.57257
▁특히	-8.5741
케	-8.57462
/	-8.57478
▁우리나라	-8.57657
▁눈물	-8.57786
▁오랜만에	-8.58228
▁ᄏᄏᄏᄏ	-8.58311
▁사실	-8.58478
;;;	-8.59213
▁감독의	-8.59379
▁몇	-8.59414
▁멋진	-8.59456
▁머	-8.59825
아니	-8.59842
▁마지막에	-8.599
스트	-8.59948
ᅮᅮ	-8.59981
▁막	-8.59986
▁뻔한	-8.60324
▁있	-8.60438
▁인	-8.60495
▁제목	-8.60575
승	-8.60584
▁매	-8.60601
▁않	-8.6066
▁들	-8.6076
▁봤습니다	-8.60842
▁허	-8.61015
리는	-8.61023
▁공포영화	-8.61253
▁이해가	-8.61325
▁필요	-8.6148
7	-8.61781
불	-8.61872
▁영상	-8.6195
있	-8.62002
▁B	-8.62073
▁현실	-8.62085
락	-8.62388
는지	-8.62422
▁좋고	-8.62641
▁될	-8.62681
론	-8.6271
테	-8.62738
았다	-8.62758
▁좋아하는	-8.63265
▁알바	-8.63379
▁시리즈	-8.63436
▁OOO	-8.63464
▁봤던	-8.6354
▁상	-8.63622
▁연기력	-8.63758
▁없음	-8.63868
름	-8.63888
???	-8.64029
업	-8.64063
▁영화에	-8.64117
▁소재	-8.64264
▁지루하고	-8.6446
▁수작	-8.64604
밖에	-8.6468
▁가슴	-8.64737
브	-8.64865
▁지루함	-8.64971
s	-8.65183
중에	-8.65187
잼	-8.65298
▁지루한	-8.65317
▁기분	-8.65384
통	-8.65608
대로	-8.65625
투	-8.65809
▁^^	-8.659
설	-8.65988
▁시나리오	-8.6602
▁생각이	-8.6607
기에	-8.66157
▁재미가	-8.66245
력	-8.66571
었던	-8.66627
▁시작	-8.67079
봐도	-8.67174
꺼	-8.67312
계	-8.67415
▁억지	-8.67614
않	-8.67619
▁맞	-8.67726
탄	-8.67998
봤다	-8.68034
이런	-8.68096
▁재밌는	-8.68122
▁ᅲ	-8.68197
▁싶은	-8.68473
▁최고다	-8.6849
근	-8.68553
만큼	-8.6856
▁긴장감	-8.68581
돈	-8.68697
▁만화	-8.68956
기도	-8.69075
있다	-8.69218
향	-8.6925
▁토	-8.69356
▁함께	-8.69366
더라	-8.69366
▁된	-8.6941
▁뭘	-8.69414
▁그저	-8.69437
▁어떤	-8.69505
▁뭔	-8.69602
재미	-8.69624
알	-8.69635
했	-8.69711
였	-8.69868
▁괜찮은	-8.69928
그냥	-8.7004
▁결국	-8.70486
▁오늘	-8.70612
이네	-8.70768
니다	-8.70965
천	-8.7108
▁노래	-8.71086
입	-8.71094
▁배우들의	-8.71152
잔	-8.7129
머	-8.71314
▁졸작	-8.71336
▁개인적으로	-8.7137
창	-8.71691
▁최	-8.71727
하면서	-8.71773
했음	-8.71825
0	-8.71921
▁보는내내	-8.71955
른	-8.72218
너	-8.72255
▁같	-8.72281
▁큰	-8.72347
▁살	-8.72371
▁애니메이션	-8.72428
행	-8.72479
교	-8.72608
재밌	-8.72727
감독	-8.72741
▁영화로	-8.72908
▁한국영화	-8.72918
▁보세요	-8.72968
▁사람이	-8.73096
▁졸	-8.73261
악	-8.73301
▁없이	-8.73467
먹	-8.73467
▁20	-8.73507
하며	-8.73527
을까	-8.73741
▁코믹	-8.73763
씬	-8.73953
▁설정	-8.73962
▁강추	-8.74093
▁적	-8.74399
~!	-8.74437
순	-8.7455
,,,	-8.74562
글	-8.74614
았	-8.74753
▁안되는	-8.74958
▁몰입도	-8.75037
사랑	-8.75138
▁캐스팅	-8.75205
▁죽	-8.75231
강	-8.75373
보단	-8.75471
▁행복	-8.75482
▁얼마나	-8.75533
▁못한	-8.75568
난다	-8.75665
구만	-8.75724
▁지루하다	-8.75734
▁후회	-8.75757
직	-8.75934
▁아무리	-8.75957
▁재미없	-8.7596
""""	-8.76052
더니	-8.76173
▁타	-8.76209
봄	-8.76298
▁좋	-8.76311
▁선	-8.76578
▁단	-8.76594
뭐	-8.76611
된다	-8.76706
000	-8.76813
감동	-8.7682
평	-8.76844
▁느낌이	-8.76913
6	-8.77139
증	-8.7736
▁기억에	-8.77405
버린	-8.77419
에도	-8.77421
출	-8.77459
슬	-8.77637
▁엔딩	-8.77695
돌	-8.77814
▁아이	-8.77959
▁봐야	-8.78051
잇	-8.7806
록	-8.78093
블	-8.78412
친	-8.78458
▁아무	-8.7851
담	-8.78698
▁화	-8.78936
온	-8.79001
초	-8.7902
▁존	-8.79138
갈	-8.79409
맨	-8.79586
▁물	-8.79594
김	-8.799
레이	-8.7997
▁매우	-8.80055
▁연기는	-8.80246
▁제발	-8.80578
거야	-8.80673
내용	-8.80711
▁더빙	-8.80736
잡	-8.81019
▁평	-8.8129
▁매력	-8.81302
만한	-8.81382
▁총	-8.81383
짐	-8.81421
▁극	-8.81448
병	-8.81535
▁스릴	-8.81668
▁그렇게	-8.81689
이네요	-8.81798
하는데	-8.82041
▁베	-8.82291
작품	-8.82739
나는	-8.82932
언	-8.82935
기는	-8.82977
독	-8.83172
▁배경	-8.83198
▁좋아요	-8.8325
이야	-8.83335
▁실	-8.83354
▁지루	-8.83374
▁명	-8.83506
이지만	-8.83517
련	-8.83525
뻔	-8.83663
짓	-8.83893
g	-8.83955
▁마음	-8.84029
결	-8.84125
▁치	-8.84145
었음	-8.84166
척	-8.84286
색	-8.8429
▁전쟁	-8.84459
▁당	-8.84558
ᅮ	-8.84558
▁간	-8.84606
▁생	-8.84708
겠	-8.84768
▁보게	-8.84781
이지	-8.84944
▁위	-8.8499
끼	-8.85337
▁있었	-8.8537
▁모르겠다	-8.85456
▁호	-8.85631
▁것이	-8.85706
권	-8.85754
▁경	-8.85823
새	-8.85922
▁봤어요	-8.86132
영화는	-8.86158
▁입	-8.8619
▁분위기	-8.86209
▁잼	-8.86375
▁어디	-8.86567
▁엄마	-8.86586
▁있고	-8.86772
다고	-8.86788
쓰레기	-8.86931
막	-8.86933
▁예술	-8.86948
▁따라	-8.87035
액션	-8.87094
▁길	-8.87113
▁같이	-8.87228
▁극장에서	-8.87246
점을	-8.87297
광	-8.87306
▁잠	-8.87429
▁열	-8.87571
봐	-8.87628
쉬	-8.87752
▁않는다	-8.87831
▁별점	-8.87843
▁마음이	-8.87952
▁유치	-8.88222
▁하나도	-8.88243
▁너무나	-8.88298
▁음	-8.88398
점대	-8.88442
군요	-8.88599
▁재밌음	-8.88831
▁의미	-8.88991
i	-8.88994
할수	-8.8917
D	-8.89404
빠	-8.89437
▁애들	-8.8962
▁멋있	-8.89678
이었다	-8.89695
▁웃기	-8.8976
▁위한	-8.89772
해라	-8.89933
왕	-8.90118
느	-8.90331
▁정신	-8.90338
▁보지	-8.90371
▁위해	-8.90372
▁ᄒ	-8.90483
▁찾아	-8.90497
▁약	-8.90539
▁한다	-8.9057
칠	-8.90591
▁준	-8.90763
졌	-8.9102
좋아	-8.91032
▁없어	-8.91104
>	-8.91384
슨	-8.91408
플	-8.91533
▁있을	-8.91578
완	-8.91614
열	-8.91968
께	-8.92139
▁장난	-8.92168
법	-8.92192
▁중국	-8.92388
기를	-8.92454
별	-8.92469
각	-8.92539
싶	-8.92742
션	-8.92752
▁존나	-8.92767
▁알고	-8.92839
▁문제	-8.92873
표	-8.9288
▁작가	-8.92899
▁백	-8.92993
▁너	-8.93441
치고	-8.93459
느낌	-8.9354
▁먹	-8.93555
▁찾	-8.93644
▁그만	-8.93856
▁누가	-8.9386
123	-8.93982
엇	-8.94019
짜	-8.94145
▁미친	-8.94174
소리	-8.94217
이상	-8.94277
만들	-8.94327
▁로맨스	-8.94428
라서	-8.94472
났	-8.94473
▁봐	-8.94651
에는	-8.94679
▁이름	-8.9468
▁감동이	-8.94693
길래	-8.94752
▁들어	-8.94819
보니	-8.94833
▁대체	-8.94837
▁외	-8.94973
었	-8.95008
그리고	-8.95023
치는	-8.95251
▁영상미	-8.9536
수가	-8.95364
h	-8.95427
범	-8.95452
▁얼굴	-8.95611
인줄	-8.95646
▁눈물이	-8.95673
▁내용은	-8.95743
▁글	-8.95813
▁똥	-8.95829
다는	-8.95879
▁출연	-8.95913
▁편	-8.96111
▁걸작	-8.96116
해야	-8.96219
▁주연	-8.96221
y	-8.96318
리고	-8.96459
것이	-8.96488
▁가슴이	-8.96595
▁자기	-8.96606
▁높	-8.96645
▁손	-8.96652
환	-8.96716
▁모습	-8.96838
▁영화네요	-8.97047
▁훨씬	-8.97268
▁여주인공	-8.9728
먼	-8.97309
▁ᅮᅮ	-8.97378
▁감	-8.97431
▁역	-8.97616
▁이딴	-8.97717
듯한	-8.97799
▁많	-8.97871
나요	-8.97897
▁악	-8.97915
▁그나마	-8.9795
▁추	-8.97979
튼	-8.98013
▁결말이	-8.98094
200	-8.98102
▁CG	-8.98123
▁재미없음	-8.98197
▁잡	-8.98207
▁갈수록	-8.98269
▁꽤	-8.9827
▁"""	-8.98272
기만	-8.9842
였음	-8.98438
재밋	-8.9844
+	-8.98513
▁변	-8.98537
100	-8.9859
건가	-8.98595
메	-8.98645
거지	-8.98697
▁-	-8.98748
백	-8.98767
어야	-8.98794
▁비교	-8.98862
136	-8.99084
모르	-8.99095
거리	-8.99137
라니	-8.99192
웃	-8.99312
놓고	-8.99335
▁밖에	-8.9947
▁싶	-8.99506
적이	-8.99562
▁기억이	-8.99649
▁없었다	-9.00074
될	-9.00226
▁노잼	-9.00236
▁카	-9.00704
▁터	-9.00706
c	-9.00733
좋	-9.00756
▁머리	-9.00831
수준	-9.00904
126	-9.00987
▁재밌고	-9.01041
이건	-9.01154
▁시대	-9.01243
007	-9.01418
▁발연기	-9.01454
줘	-9.01554
▁주제	-9.01586
훈	-9.01667
▁허접	-9.01822
라면	-9.01845
베	-9.01937
▁어설픈	-9.01967
▁연기를	-9.0206
년이	-9.02165
f	-9.02226
▁몰입	-9.02306
영화를	-9.02368
▁안되	-9.02415
나오는	-9.02579
102	-9.02611
▁네이버	-9.02613
으나	-9.02627
▁보여주는	-9.02668
▁그래서	-9.02697
효	-9.02748
외	-9.03024
▁집중	-9.03028
▁쓰레기영화	-9.03114
108	-9.03125
907	-9.03161
▁뒤	-9.0323
218	-9.0335
▁재미있다	-9.03422
앗	-9.03587
퍼	-9.03609
▁않다	-9.03725
▁영화중	-9.03861
▁천	-9.03868
r	-9.03929
129	-9.04225
합	-9.04484
▁구성	-9.0461
이라도	-9.0469
▁만들었	-9.04731
었어요	-9.0476
완전	-9.04765
▁얘기	-9.0496
쓰	-9.05009
▁뿐	-9.05021
▁자체	-9.05039
142	-9.05075
▁다들	-9.05096
221	-9.05102
찍	-9.05211
▁웃음	-9.05215
▁어느	-9.05264
▁다큐	-9.05361
▁감동도	-9.05373
▁첨	-9.054
▁나왔	-9.05438
여자	-9.05598
▁시즌	-9.05648
존	-9.05684
152	-9.05776
덕	-9.05922
111	-9.0606
k	-9.06066
▁아쉽다	-9.06114
나오	-9.06132
아서	-9.06174
159	-9.0618
▁30	-9.06236
656	-9.0625
을때	-9.06262
978	-9.06295
b	-9.06324
_	-9.06346
♡	-9.06346
133	-9.06346
▁성룡	-9.06355
올	-9.06384
904	-9.06401
▁잔잔한	-9.06626
▁볼만한	-9.06642
됨	-9.06661
정도로	-9.06688
▁간만에	-9.06688
▁힘	-9.06726
럽	-9.06772
▁버	-9.06776
800	-9.06847
238	-9.0692
841	-9.06936
할때	-9.06942
▁포스터	-9.07035
▁영화관에서	-9.07042
170	-9.07093
220	-9.07097
이거	-9.07143
▁올	-9.07168
112	-9.07255
▁메	-9.07333
혀	-9.0735
땜에	-9.07502
077	-9.0754
u	-9.07552
822	-9.07781
113	-9.07836
▁다음	-9.07875
재미있	-9.0794
m	-9.0796
▁코	-9.07969
▁주고	-9.08033
▁야	-9.08083
있고	-9.08181
영화가	-9.08416
500	-9.08422
추	-9.08477
낸	-9.08525
▁평가	-9.08651
▁좋은데	-9.08823
l	-9.08863
▁만	-9.08948
131	-9.08982
▁맛	-9.08997
906	-9.0903
없음	-9.09135
119	-9.09146
▁레	-9.0915
139	-9.09152
▁담	-9.09159
▁감동적인	-9.09166
090	-9.09234
▁딸	-9.09326
124	-9.09437
243	-9.09477
911	-9.09652
없고	-9.09671
약	-9.09746
씩	-9.0976
침	-9.09891
833	-9.09899
좋은	-9.09939
▁맘에	-9.09981
209	-9.10027
기가	-9.10105
월	-9.10141
스러운	-9.10197
▁방	-9.10227
120	-9.10298
겠지	-9.10313
▁그러	-9.10332
또	-9.10337
178	-9.10385
▁잼있	-9.10424
155	-9.10445
탈	-9.10445
▁나이	-9.1046
▁상황	-9.10472
802	-9.10698
▁제작	-9.10744
445	-9.10758
929	-9.10817
했지만	-9.10825
술	-9.1101
256	-9.11064
527	-9.11079
013	-9.11101
215	-9.11122
린다	-9.11274
691	-9.11293
266	-9.11301
114	-9.11402
976	-9.11429
918	-9.11458
134	-9.11493
070	-9.11555
▁존재	-9.11555
▁전부	-9.11585
▁소리	-9.11624
801	-9.11631
▁당시	-9.11642
078	-9.11666
737	-9.11719
▁생각보다	-9.1175
071	-9.11763
▁재미있는	-9.11789
843	-9.11835
▁영화였다	-9.11844
커	-9.11891
▁같아요	-9.11901
181	-9.11904
편이	-9.11946
▁오래	-9.11969
916	-9.12023
931	-9.12081
164	-9.12101
135	-9.12121
186	-9.12148
는건	-9.1216
236	-9.12172
▁감정	-9.12233
913	-9.12245
249	-9.12265
라이	-9.12301
▁산	-9.12307
122	-9.12324
▁진정한	-9.12338
▁등	-9.12394
140	-9.12433
▁사람들이	-9.12457
빈	-9.12519
850	-9.12525
▁있을까	-9.12536
121	-9.12571
873	-9.12577
723	-9.12583
▁바로	-9.12594
▁약간	-9.12612
▁관객	-9.1262
066	-9.12637
으니	-9.1267
057	-9.12738
▁아님	-9.128
062	-9.129
보기	-9.12998
874	-9.1301
213	-9.13046
217	-9.13096
940	-9.13326
▁볼만	-9.13358
932	-9.13381
503	-9.13422
주의	-9.13478
902	-9.1349
▁스토리는	-9.13508
830	-9.13587
006	-9.13612
655	-9.13658
▁작	-9.1367
▁암	-9.13743
▁생각을	-9.13758
055	-9.13822
▁""""	-9.13833
876	-9.13866
910	-9.13866
799	-9.13881
118	-9.13908
128	-9.13968
채	-9.14187
132	-9.14188
237	-9.14188
179	-9.14221
245	-9.14248
307	-9.14254
251	-9.14271
205	-9.14314
796	-9.14402
399	-9.1447
222	-9.14598
▁않았	-9.14605
201	-9.1462
900	-9.14656
150	-9.1466
145	-9.14718
193	-9.14731
목	-9.14744
644	-9.14762
▁것을	-9.14781
225	-9.148
141	-9.14947
974	-9.14956
혜	-9.1511
216	-9.1514
진다	-9.1526
▁배우들이	-9.15294
▁갈	-9.15301
구요	-9.15305
254	-9.15327
▁같은데	-9.15391
배우들	-9.15443
681	-9.15546
105	-9.15563
789	-9.15572
716	-9.15585
914	-9.15732
▁점수	-9.15796
269	-9.15846
234	-9.15888
137	-9.15918
832	-9.16001
▁재미는	-9.16082
809	-9.1609
놈	-9.16101
▁재미있어요	-9.16201
002	-9.1621
257	-9.16255
905	-9.16271
▁그대로	-9.16285
079	-9.16295
228	-9.16296
884	-9.16304
▁대해	-9.16312
▁상당히	-9.16339
459	-9.16354
479	-9.16358
▁나올	-9.16373
▁역사	-9.16373
▁분	-9.16432
549	-9.16459
607	-9.16464
646	-9.16535
852	-9.16542
▁종	-9.16549
143	-9.16572
009	-9.16578
192	-9.16647
엉	-9.16647
082	-9.16678
478	-9.16708
처	-9.16717
▁감동을	-9.16773
▁관	-9.16798
928	-9.16802
845	-9.16836
▁예상	-9.16864
917	-9.16873
076	-9.16887
748	-9.16916
851	-9.16926
▁준다	-9.16959
109	-9.1696
988	-9.16995
복	-9.17005
814	-9.17011
383	-9.17022
432	-9.17061
151	-9.17066
▁데	-9.17079
253	-9.17094
▁높은	-9.17095
650	-9.17102
194	-9.17112
보다는	-9.17115
565	-9.17129
939	-9.17168
▁중간에	-9.1717
444	-9.17176
▁옛날	-9.17183
021	-9.17319
▁실화	-9.1735
063	-9.17367
779	-9.17375
067	-9.17416
154	-9.17436
103	-9.17457
008	-9.17471
665	-9.17529
204	-9.17536
▁것도	-9.17559
837	-9.17582
했어요	-9.17584
▁재밌네요	-9.17609
469	-9.17634
022	-9.17644
882	-9.17656
240	-9.17692
522	-9.17702
413	-9.17781
971	-9.17784
171	-9.17796
561	-9.17825
144	-9.17888
익	-9.17897
욕	-9.179
▁뭐야	-9.17911
849	-9.17922
446	-9.17947
183	-9.17961
▁충격	-9.17975
▁질	-9.18062
555	-9.18077
185	-9.18119
244	-9.1812
466	-9.18126
017	-9.18154
430	-9.18179
117	-9.18193
762	-9.18194
332	-9.18239
▁나와서	-9.18247
지루	-9.1825
▁뻔	-9.18267
770	-9.18281
434	-9.18371
세요	-9.18373
369	-9.18396
206	-9.18419
231	-9.18458
095	-9.18459
▁재미없는	-9.18493
993	-9.18498
679	-9.18503
464	-9.18505
992	-9.18525
504	-9.18633
805	-9.18664
ᄋ	-9.18679
666	-9.18728
219	-9.18754
717	-9.18755
232	-9.18758
080	-9.18761
눈	-9.18763
이야기	-9.18764
▁판타지	-9.18787
293	-9.1881
440	-9.18818
405	-9.18836
▁친구	-9.18854
들도	-9.18864
813	-9.18889
567	-9.18932
517	-9.18976
645	-9.18984
473	-9.18999
816	-9.19
756	-9.19022
552	-9.19042
936	-9.19043
887	-9.19048
836	-9.19064
093	-9.19119
▁삼	-9.19119
▁영화인데	-9.19127
933	-9.1918
773	-9.19222
같이	-9.19224
248	-9.19233
153	-9.19234
061	-9.19271
848	-9.19289
340	-9.19304
437	-9.19355
188	-9.19361
930	-9.19364
556	-9.19365
010	-9.19388
523	-9.1944
670	-9.19452
052	-9.19454
127	-9.19467
172	-9.19492
175	-9.19516
460	-9.19529
042	-9.19532
920	-9.19583
817	-9.19593
▁여기	-9.19659
074	-9.19671
210	-9.19744
001	-9.19756
414	-9.19774
035	-9.19788
▁했는데	-9.19834
015	-9.19849
983	-9.19862
169	-9.199
▁거의	-9.19924
▁살아	-9.19931
761	-9.19936
059	-9.19966
765	-9.19976
636	-9.20018
207	-9.20035
▁ᅳ	-9.20053
815	-9.20095
818	-9.20103
허	-9.20116
094	-9.2014
812	-9.20166
177	-9.20235
~!!	-9.20267
912	-9.20267
끝	-9.20282
268	-9.20318
554	-9.2032
341	-9.2034
578	-9.20349
838	-9.20364
료	-9.2037
다시	-9.20401
▁감성	-9.20411
068	-9.20431
ᄉ	-9.20437
823	-9.20473
081	-9.20486
987	-9.20493
997	-9.20498
685	-9.20499
청	-9.20501
502	-9.20529
980	-9.2054
877	-9.20541
682	-9.20637
674	-9.20648
227	-9.20725
014	-9.20732
p	-9.20745
습	-9.20792
226	-9.20811
526	-9.20835
484	-9.20878
235	-9.20913
919	-9.20918
▁정도로	-9.21019
514	-9.21023
▁뭐지	-9.21054
563	-9.21061
156	-9.21062
▁봤지만	-9.21087
212	-9.21091
981	-9.21094
187	-9.21099
647	-9.21105
▁장르	-9.21138
264	-9.21141
▁숨	-9.21176
521	-9.21193
▁몸	-9.21194
056	-9.21215
733	-9.21229
470	-9.21237
797	-9.21259
458	-9.21284
260	-9.21327
찬	-9.21336
기대	-9.21386
▁알게	-9.21401
831	-9.21404
099	-9.21413
892	-9.21439
149	-9.21448
386	-9.21497
125	-9.21498
994	-9.21514
016	-9.21552
354	-9.21619
148	-9.21638
069	-9.21672
295	-9.21672
230	-9.21673
▁혼자	-9.21704
844	-9.2172
999	-9.21725
숙	-9.21737
138	-9.21787
360	-9.21817
338	-9.21838
529	-9.21853
주인공	-9.21871
낮	-9.21883
115	-9.21884
952	-9.21906
▁멜로	-9.21938
582	-9.21945
▁마음에	-9.21959
멋	-9.2197
726	-9.21976
005	-9.2203
104	-9.22042
▁영화도	-9.22043
▁재미있	-9.22044
875	-9.22047
735	-9.22097
054	-9.2213
863	-9.22136
053	-9.22146
637	-9.22178
384	-9.22179
661	-9.22179
196	-9.2219
398	-9.2219
▁요	-9.22221
568	-9.22229
774	-9.2223
317	-9.22252
617	-9.22299
938	-9.22303
▁패	-9.2231
901	-9.22338
772	-9.22339
▁괜찮	-9.22362
039	-9.22372
767	-9.22388
▁슬픈	-9.22395
750	-9.22418
211	-9.22469
730	-9.22476
시대	-9.22478
331	-9.22493
885	-9.22497
203	-9.22512
▁영화라	-9.22517
777	-9.22518
▁부족	-9.22522
660	-9.22566
721	-9.2257
한거	-9.22573
673	-9.2258
191	-9.22588
872	-9.2259
130	-9.22604
447	-9.22614
262	-9.22658
967	-9.2266
지않	-9.22661
성이	-9.22675
649	-9.22705
▁따	-9.22715
807	-9.22727
689	-9.22799
214	-9.22817
868	-9.22834
편은	-9.22853
820	-9.22856
703	-9.22862
495	-9.22867
867	-9.22868
▁줄거리	-9.22872
303	-9.22875
햇	-9.22946
048	-9.22998
895	-9.23019
응	-9.23049
▁영화임	-9.23072
622	-9.23099
▁있지만	-9.23125
694	-9.23131
835	-9.23145
남자	-9.23162
423	-9.23167
418	-9.23185
▁추억	-9.23201
572	-9.23215
397	-9.23215
189	-9.23223
941	-9.23242
903	-9.23262
894	-9.23271
683	-9.23303
101	-9.23315
364	-9.23318
696	-9.23321
995	-9.23341
259	-9.23346
▁팬	-9.23354
조차	-9.23375
쪽	-9.23382
559	-9.23388
208	-9.23389
579	-9.23423
709	-9.23445
310	-9.23456
879	-9.23461
예요	-9.23468
402	-9.23481
619	-9.23487
569	-9.23492
658	-9.23526
965	-9.23532
242	-9.2354
766	-9.23545
에선	-9.23558
261	-9.23579
798	-9.23598
736	-9.23604
520	-9.23607
768	-9.2362
958	-9.23623
471	-9.23632
924	-9.23682
977	-9.23727
839	-9.23781
306	-9.23793
842	-9.23795
825	-9.23819
이라면	-9.23849
788	-9.23855
073	-9.23918
628	-9.23934
834	-9.23934
653	-9.23964
팬	-9.24017
560	-9.24028
897	-9.24041
629	-9.24045
871	-9.24047
▁굉장히	-9.24048
300	-9.24091
▁더욱	-9.24122
795	-9.24128
▁포	-9.24135
975	-9.24156
265	-9.24168
023	-9.24185
889	-9.24259
463	-9.24268
557	-9.24286
틀	-9.24309
731	-9.2432
915	-9.24322
394	-9.2434
▁장면이	-9.24406
195	-9.24419
158	-9.2442
083	-9.24426
442	-9.24472
780	-9.24481
819	-9.24484
064	-9.245
110	-9.24511
041	-9.2454
곡	-9.24579
771	-9.24591
▁어디서	-9.24593
804	-9.24612
198	-9.24614
▁꿈	-9.24624
339	-9.24625
747	-9.24656
241	-9.24664
▁각본	-9.24668
097	-9.24668
908	-9.24719
173	-9.24721
▁봐서	-9.24777
810	-9.24792
▁낮은	-9.24805
325	-9.2481
421	-9.24813
▁언제	-9.24828
881	-9.24854
304	-9.24862
934	-9.24869
640	-9.24871
086	-9.24875
025	-9.24921
601	-9.24947
979	-9.24954
926	-9.24966
638	-9.24966
728	-9.24973
▁초딩	-9.25062
643	-9.25069
870	-9.25092
998	-9.25097
598	-9.25127
785	-9.2514
793	-9.25151
782	-9.25157
046	-9.2517
▁보니	-9.25213
984	-9.2527
239	-9.25271
675	-9.25279
921	-9.2528
857	-9.25281
적이고	-9.25295
167	-9.25302
949	-9.25322
157	-9.25349
^	-9.25373
441	-9.2539
828	-9.25391
688	-9.25421
072	-9.25474
116	-9.25489
465	-9.25506
501	-9.2555
▁이번	-9.25556
652	-9.25581
168	-9.256
821	-9.25632
252	-9.25632
751	-9.25632
087	-9.25648
443	-9.25651
467	-9.25686
▁순	-9.25702
533	-9.25703
윤	-9.25726
▁이영화를	-9.25728
580	-9.25744
해지는	-9.2575
476	-9.25762
719	-9.25786
▁키	-9.2579
571	-9.25798
▁꼬	-9.25809
896	-9.25843
족	-9.25859
▁끝나	-9.25869
419	-9.2588
792	-9.25916
▁번	-9.2592
403	-9.25924
들에게	-9.25926
▁된다	-9.25943
OO	-9.25969
811	-9.25971
297	-9.25985
312	-9.26022
591	-9.26042
573	-9.26051
츠	-9.26071
888	-9.26095
286	-9.26105
790	-9.26109
302	-9.26129
511	-9.26145
했습니다	-9.26162
161	-9.26243
472	-9.26254
909	-9.26276
▁누구	-9.26276
298	-9.26276
626	-9.26323
854	-9.26328
755	-9.26341
794	-9.26343
058	-9.26349
▁절	-9.26361
▁했	-9.26395
250	-9.26403
▁나의	-9.26405
989	-9.2642
323	-9.26441
▁뭐냐	-9.26451
085	-9.26464
011	-9.26471
▁힘들	-9.26485
718	-9.26488
662	-9.2658
412	-9.26594
710	-9.26599
659	-9.26614
485	-9.26621
233	-9.26681
864	-9.267
585	-9.26713
891	-9.26725
427	-9.26774
되어	-9.2679
692	-9.26794
▁크	-9.26799
468	-9.26828
525	-9.26831
616	-9.2686
▁통	-9.26862
동안	-9.26881
들어	-9.2692
잖아	-9.26969
146	-9.26981
449	-9.26984
827	-9.26995
165	-9.26997
826	-9.27043
784	-9.27068
▁좋은영화	-9.27112
970	-9.27127
715	-9.27169
757	-9.27201
358	-9.27209
037	-9.27213
▁원작을	-9.27215
516	-9.27231
677	-9.27256
180	-9.2726
776	-9.27271
475	-9.27276
▁있어서	-9.27281
337	-9.27308
712	-9.27327
899	-9.27337
624	-9.27345
477	-9.27349
겠지만	-9.27367
754	-9.27376
045	-9.27396
246	-9.27397
도록	-9.27404
957	-9.2743
786	-9.27439
되고	-9.27446
▁훌륭한	-9.27447
▁새로운	-9.27459
▁극장판	-9.27471
708	-9.27477
824	-9.2751
분들	-9.27527
898	-9.27538
612	-9.27542
▁아버지	-9.27584
▁아직	-9.27602
494	-9.27604
299	-9.2761
546	-9.27705
615	-9.27708
084	-9.27767
370	-9.27794
667	-9.27807
건데	-9.27823
990	-9.27834
패	-9.27846
944	-9.27871
964	-9.27902
420	-9.27931
▁아이들	-9.27956
▁목소리	-9.27971
435	-9.27975
163	-9.27981
근데	-9.27995
051	-9.28004
하시	-9.28029
541	-9.28029
왔	-9.28043
448	-9.28058
▁저런	-9.2809
065	-9.28117
505	-9.28121
▁왕	-9.28132
492	-9.28147
▁제가	-9.28157
184	-9.28163
739	-9.28216
404	-9.28306
966	-9.28318
698	-9.28328
326	-9.28345
199	-9.28375
953	-9.28387
853	-9.28394
321	-9.28407
697	-9.2841
귀	-9.28432
202	-9.28446
684	-9.28473
=	-9.28485
320	-9.28497
614	-9.28529
106	-9.28529
893	-9.28539
334	-9.28549
588	-9.28594
▁비해	-9.28599
276	-9.28619
630	-9.28625
738	-9.28643
038	-9.28664
344	-9.28699
050	-9.28759
075	-9.28763
▁돌아	-9.28764
▁평점을	-9.28776
092	-9.28809
575	-9.28915
600	-9.28952
714	-9.28953
부분	-9.28954
537	-9.29014
089	-9.29047
483	-9.29068
342	-9.29072
519	-9.29146
648	-9.29169
532	-9.29171
330	-9.29176
633	-9.29195
봐서	-9.29195
764	-9.29253
020	-9.29253
361	-9.29272
734	-9.29288
950	-9.29294
641	-9.29303
285	-9.29309
923	-9.29317
▁그리	-9.29354
462	-9.29356
▁90	-9.29357
▁생각하게	-9.29373
461	-9.29381
996	-9.29388
587	-9.29393
335	-9.29427
576	-9.29448
951	-9.29465
840	-9.29474
760	-9.295
550	-9.29532
슴	-9.29533
229	-9.29551
357	-9.29562
:	-9.29565
963	-9.29587
396	-9.29601
328	-9.29621
224	-9.2963
704	-9.29659
400	-9.29679
859	-9.29684
362	-9.29709
032	-9.29713
937	-9.2972
695	-9.29738
544	-9.29741
294	-9.29802
972	-9.29829
406	-9.29832
783	-9.29865
945	-9.299
368	-9.29909
775	-9.29911
686	-9.29918
▁놀	-9.29936
278	-9.29954
267	-9.29955
745	-9.30002
878	-9.30004
철	-9.3001
괴	-9.30031
594	-9.30082
▁갑자기	-9.30083
333	-9.30097
034	-9.30113
답	-9.30117
▁대단한	-9.3015
603	-9.30153
480	-9.30154
493	-9.3016
027	-9.30161
530	-9.30163
935	-9.30177
566	-9.30183
맞	-9.30187
쯤	-9.30217
272	-9.30231
▁윤	-9.30251
379	-9.30266
▁양	-9.30298
439	-9.30305
539	-9.30309
▁의도	-9.3033
558	-9.30332
336	-9.30342
678	-9.30344
474	-9.30362
680	-9.30427
763	-9.3043
711	-9.30448
959	-9.30464
▁꿀잼	-9.30472
407	-9.30481
▁계	-9.30529
545	-9.30546
869	-9.30556
417	-9.3056
▁어색	-9.30562
립	-9.30606
753	-9.30702
425	-9.30739
▁b	-9.30756
727	-9.30762
609	-9.30772
"""	-9.3078
922	-9.30781
860	-9.30818
706	-9.30832
▁하지	-9.3084
258	-9.30855
700	-9.30864
하여	-9.30926
713	-9.30966
651	-9.31001
060	-9.31007
292	-9.3103
486	-9.31034
551	-9.31066
296	-9.31072
쁘	-9.31077
▁달	-9.31078
십	-9.31107
962	-9.31159
거다	-9.31166
047	-9.31166
▁화면	-9.31184
535	-9.31209
611	-9.31212
672	-9.31225
044	-9.3123
883	-9.31232
▁봐라	-9.31233
166	-9.31236
▁감독님	-9.31251
720	-9.31278
528	-9.31312
377	-9.31317
엿	-9.31317
▁항상	-9.31319
091	-9.31337
632	-9.31347
▁보여주	-9.3135
283	-9.31369
▁감동적이	-9.3139
540	-9.31398
273	-9.31413
▁여배우	-9.31453
740	-9.31468
621	-9.31472
▁짜	-9.31485
억	-9.31505
865	-9.31541
▁성우	-9.3155
570	-9.31585
107	-9.31624
아깝다	-9.31662
▁봤음	-9.31675
942	-9.31675
땐	-9.31677
▁흥행	-9.31691
401	-9.31709
450	-9.31734
리가	-9.31737
829	-9.31785
▁있어	-9.31799
098	-9.31837
759	-9.31837
491	-9.31847
263	-9.31867
▁방송	-9.31873
별로	-9.31899
553	-9.31947
657	-9.31973
짝	-9.3198
743	-9.3199
004	-9.31998
▁어이없	-9.32001
▁그러나	-9.32017
724	-9.32042
654	-9.32049
324	-9.32081
▁연출력	-9.32104
마지막	-9.3211
791	-9.32111
513	-9.32139
376	-9.32168
627	-9.32197
247	-9.32202
329	-9.32253
593	-9.32291
489	-9.32389
431	-9.324
308	-9.32405
947	-9.32442
▁사회	-9.32477
놈들	-9.32485
862	-9.3249
활	-9.325
174	-9.32526
088	-9.32574
623	-9.32577
925	-9.32611
749	-9.32612
162	-9.32635
써	-9.3267
▁대단	-9.32713
념	-9.3276
간다	-9.32798
런	-9.32815
597	-9.32834
389	-9.32837
굿	-9.32864
270	-9.32886
182	-9.32905
543	-9.32918
536	-9.32919
787	-9.3292
595	-9.32941
642	-9.32942
▁처음부터	-9.32953
746	-9.32972
861	-9.32991
488	-9.33049
147	-9.33062
▁현	-9.33072
▁신선	-9.33077
518	-9.33077
438	-9.33088
415	-9.33116
803	-9.33129
▁비디오	-9.33135
에요	-9.3315
722	-9.33183
거나	-9.33205
마다	-9.33217
▁그런지	-9.33245
같	-9.33278
▁일단	-9.3328
290	-9.33319
▁드	-9.33337
429	-9.33347
589	-9.33347
454	-9.33373
411	-9.33379
▁저는	-9.33386
혹	-9.3339
듬	-9.33419
744	-9.33424
701	-9.33427
▁뭐가	-9.33435
668	-9.33437
380	-9.33453
▁자체가	-9.33467
전개	-9.33468
534	-9.33524
515	-9.33529
618	-9.33536
371	-9.3356
버리	-9.33591
451	-9.33602
577	-9.33603
676	-9.33617
▁태	-9.33621
애들	-9.33631
003	-9.3364
▁찍	-9.33654
309	-9.33658
781	-9.33661
변	-9.33704
388	-9.33718
277	-9.3375
▁이런영화	-9.33751
▁게	-9.33752
야지	-9.33771
574	-9.33775
508	-9.33786
▁바라	-9.33866
416	-9.33884
하냐	-9.3389
▁못하는	-9.33914
275	-9.33945
012	-9.3397
다면	-9.33986
499	-9.33996
393	-9.33996
742	-9.33999
367	-9.3402
705	-9.34022
셨	-9.34036
▁교훈	-9.34055
758	-9.34083
693	-9.34084
960	-9.34087
▁빨리	-9.34136
847	-9.34145
벌	-9.34155
▁낚	-9.34161
▁프랑스	-9.34232
752	-9.34235
019	-9.34254
▁TV	-9.34261
548	-9.34265
732	-9.34281
036	-9.34302
956	-9.34314
634	-9.34318
▁너무너무	-9.34378
315	-9.34402
▁첫	-9.34413
778	-9.34453
890	-9.3448
뜨	-9.34512
▁되어	-9.34514
년전	-9.34536
365	-9.34545
327	-9.34553
▁개연성	-9.34573
곳	-9.34576
319	-9.34606
690	-9.34665
▁주인공이	-9.34693
▁광	-9.34711
347	-9.34722
846	-9.34732
301	-9.34791
288	-9.34798
▁아까움	-9.348
▁없어서	-9.34802
453	-9.34814
498	-9.34845
639	-9.34865
160	-9.34894
시리즈	-9.34947
규	-9.34974
381	-9.34975
538	-9.35031
343	-9.35033
858	-9.35069
948	-9.35077
596	-9.35096
것같다	-9.35169
366	-9.35176
606	-9.35218
581	-9.35247
387	-9.35273
갑	-9.35277
702	-9.35285
961	-9.35293
806	-9.3531
562	-9.35335
됬	-9.35347
284	-9.35357
663	-9.35365
웠	-9.3537
▁충분히	-9.35376
599	-9.35399
▁리	-9.35422
했으면	-9.35425
▁궁금	-9.35457
625	-9.35509
395	-9.35511
028	-9.35531
▁초반	-9.35575
▁짜증	-9.35592
함이	-9.35638
604	-9.35673
351	-9.35736
n	-9.35755
457	-9.35756
▁만점	-9.35777
348	-9.35816
▁가지고	-9.35911
510	-9.35911
428	-9.35921
669	-9.35929
281	-9.35945
223	-9.35954
279	-9.35987
▁휴	-9.36006
▁헐	-9.36028
392	-9.36032
608	-9.36043
524	-9.36044
699	-9.36053
▁봄	-9.36213
043	-9.36262
나라	-9.36325
927	-9.36422
968	-9.36456
▁(	-9.36505
▁낮	-9.36529
176	-9.36561
▁점점	-9.36591
507	-9.36593
808	-9.36621
436	-9.36696
▁세계	-9.3675
509	-9.36764
289	-9.36826
▁good	-9.36831
▁사람은	-9.36852
함을	-9.36921
408	-9.36924
409	-9.36979
352	-9.36995
▁있었다	-9.37022
197	-9.37109
같다	-9.3714
▁좋네요	-9.37159
▁tv	-9.37181
▁삼류	-9.37217
422	-9.37249
▁있는데	-9.37271
313	-9.373
620	-9.37386
삼	-9.37386
969	-9.37391
346	-9.37419
190	-9.37425
졌다	-9.37431
▁나와	-9.37439
583	-9.37487
426	-9.37497
382	-9.37502
886	-9.37525
▁안된다	-9.37564
▁했다	-9.37601
982	-9.37639
도없고	-9.37683
▁떠	-9.37715
하니	-9.37752
였는데	-9.37769
인이	-9.37784
314	-9.37795
991	-9.37845
-_-	-9.37918
▁교	-9.37962
ᄀ	-9.37984
602	-9.38023
707	-9.38027
▁느	-9.38054
지고	-9.38061
나서	-9.38149
671	-9.38257
▁복수	-9.38299
985	-9.38304
322	-9.38327
033	-9.38373
274	-9.38373
372	-9.38435
271	-9.38437
최악	-9.38445
547	-9.38447
품	-9.3845
729	-9.38465
610	-9.38481
024	-9.38524
처음	-9.3856
롭	-9.38589
듣	-9.3862
▁말고	-9.38638
~~~~	-9.38649
▁댓글	-9.3866
▁말도	-9.38675
040	-9.38676
855	-9.3871
096	-9.38712
287	-9.38737
▁재밌는데	-9.3877
512	-9.38806
635	-9.38812
433	-9.38826
▁없을	-9.38866
▁하다	-9.38953
▁잘못	-9.38965
769	-9.38975
584	-9.3902
▁어린	-9.39194
▁몰	-9.3922
▁완벽	-9.3923
564	-9.39303
▁가는	-9.3934
031	-9.39361
410	-9.39368
곤	-9.39433
▁책	-9.39472
▁먹먹	-9.39573
487	-9.39574
385	-9.39595
▁그닥	-9.39659
▁순간	-9.39738
했고	-9.39779
311	-9.39791
▁좋겠다	-9.39796
605	-9.39799
866	-9.39833
▁나온다	-9.39845
345	-9.39895
본다	-9.39914
▁집	-9.3993
싱	-9.39937
령	-9.39937
▁지루해	-9.39948
성을	-9.39955
봐야	-9.39981
954	-9.39982
356	-9.40041
255	-9.40147
▁답답	-9.40196
880	-9.40214
랄	-9.40355
필	-9.40399
316	-9.40401
590	-9.40407
▁써	-9.40419
▁설	-9.40446
하는게	-9.40457
613	-9.40514
973	-9.40521
▁여주	-9.40531
아이	-9.40535
▁훌륭	-9.40587
▁지나	-9.40637
390	-9.40697
363	-9.40716
링	-9.40722
▁목	-9.40763
▁온	-9.40784
482	-9.40799
▁시절	-9.40799
사람들	-9.40842
456	-9.40856
▁어릴때	-9.40857
359	-9.40862
029	-9.40876
겟	-9.40982
▁흥미진진	-9.40984
▁돌	-9.41066
378	-9.41069
490	-9.41089
율	-9.41118
▁도저히	-9.41118
▁재밌었다	-9.41218
▁짜증나	-9.4127
지금	-9.41307
▁한마디로	-9.41347
481	-9.41516
는것	-9.41548
725	-9.4155
다운	-9.4171
▁두번	-9.41731
955	-9.41751
일까	-9.41806
305	-9.41825
049	-9.41832
드는	-9.41878
아닌	-9.41898
▁쳐	-9.41929
030	-9.41935
280	-9.41967
▁것은	-9.41983
▁다시봐도	-9.4206
밀	-9.42063
을듯	-9.4207
506	-9.42116
▁더럽게	-9.4213
▁회	-9.42197
속에	-9.42259
한영화	-9.42274
껏	-9.42313
350	-9.42345
▁황	-9.42358
▁엄청난	-9.42424
거냐	-9.4252
452	-9.42542
▁따뜻한	-9.42604
▁형	-9.42612
687	-9.4263
▁유치한	-9.42671
▁투	-9.42679
슈	-9.42714
▁무조건	-9.42715
▁깨	-9.42735
내가	-9.42765
986	-9.4278
▁세상	-9.42846
▁낫다	-9.42897
얼	-9.4291
주세요	-9.42924
586	-9.43075
이라니	-9.43155
▁선택	-9.43171
455	-9.43201
것을	-9.43284
있네	-9.43287
▁문	-9.433
대박	-9.43384
많	-9.43417
946	-9.43531
▁불륜	-9.43534
▁부분	-9.4359
하던	-9.43691
말이	-9.43711
531	-9.43786
노잼	-9.43787
▁삶	-9.43919
▁아쉬운	-9.43929
318	-9.43967
496	-9.43983
▁예전에	-9.43984
349	-9.44008
▁괴	-9.44057
가서	-9.44068
▁허무	-9.44102
856	-9.44223
겁	-9.44243
▁이영화는	-9.4431
▁소설	-9.44354
741	-9.44399
자들	-9.44418
▁원래	-9.44442
시키	-9.44462
▁과거	-9.44481
w	-9.44554
▁노력	-9.44579
특	-9.44605
▁극장	-9.44695
497	-9.44822
291	-9.44923
스럽다	-9.44951
▁이것도	-9.45013
한데	-9.45025
▁100	-9.45117
▁이유	-9.45134
줘야	-9.45159
▁참고	-9.4519
▁봤네요	-9.4521
여서	-9.4533
▁망작	-9.45433
282	-9.45525
염	-9.45572
▁재미없어	-9.45638
이게	-9.4564
▁만족	-9.45646
▁아까워	-9.4565
▁모르고	-9.45784
만든	-9.45804
▁새	-9.45879
▁돈주고	-9.4598
▁끝내	-9.45998
▁전개가	-9.46011
943	-9.46026
▁없네	-9.46034
▁ᄍᄍ	-9.46055
연출	-9.46196
북	-9.46348
춘	-9.46392
축	-9.46396
▁알아	-9.46473
391	-9.46525
영화다	-9.4653
▁해도	-9.46531
664	-9.46574
놓	-9.46809
ᄂ	-9.46819
▁지금까지	-9.46822
▁편집	-9.4684
이냐	-9.46876
▁디	-9.46987
▁흠	-9.47134
▁해서	-9.47154
▁사랑을	-9.4719
373	-9.47201
년도	-9.47299
▁80	-9.47352
▁이어	-9.47398
▁재밌어	-9.47511
▁돋	-9.47519
▁이미	-9.47588
딱	-9.47631
▁M	-9.47657
충	-9.47692
하는거	-9.47736
631	-9.47749
▁느끼	-9.47924
▁생각해	-9.47988
보는데	-9.48009
봐라	-9.48067
보다가	-9.48108
▁후반부	-9.48177
▁당신	-9.4821
▁보는데	-9.48244
026	-9.48249
542	-9.48258
▁모르는	-9.48305
▁감독은	-9.48307
감이	-9.4838
375	-9.48394
▁아닌가	-9.48399
▁없었	-9.48508
▁넘어	-9.48555
▁힘든	-9.48571
오빠	-9.48602
▁복	-9.4866
355	-9.48672
▁그것	-9.48685
▁쓴	-9.48706
353	-9.48711
▁어쩌	-9.48789
▁영화보다	-9.48892
책	-9.48936
싸	-9.48947
▁그때	-9.4895
▁평점은	-9.48973
걸까	-9.49026
▁설명	-9.49091
▁그래픽	-9.49099
▁빠져	-9.491
리스	-9.49275
렌	-9.4937
▁전형적인	-9.4939
어도	-9.49426
려서	-9.49446
374	-9.49503
명작	-9.49505
▁바보	-9.49649
▁알았	-9.497
▁반전이	-9.497
▁자꾸	-9.49714
▁살인	-9.49797
▁내인생	-9.49869
들과	-9.49876
▁이것	-9.49924
▁아쉽	-9.49924
▁완벽한	-9.50045
▁병맛	-9.50133
▁분명	-9.50296
▁캐	-9.50446
음악	-9.50522
▁미화	-9.50574
▁괜히	-9.5067
▁예고편	-9.50675
▁저질	-9.50675
▁인물	-9.50815
▁사람들은	-9.50824
▁둘	-9.51066
그래도	-9.51096
424	-9.51115
▁s	-9.51119
휴	-9.51148
풍	-9.51152
▁이정도	-9.51205
▁느낄	-9.51227
▁귀신	-9.51228
▁웃긴	-9.51269
▁감사	-9.51271
ᄒᄒᄒ	-9.51307
▁무서운	-9.51327
▁평점에	-9.51335
▁연출이	-9.51354
찰	-9.51497
▁상상	-9.51506
었습니다	-9.51535
킬	-9.51542
페	-9.51608
▁있음	-9.51694
였습니다	-9.51714
▁별루	-9.51747
년에	-9.51769
▁작품이	-9.51772
▁뭔지	-9.51894
▁까	-9.51932
폐	-9.51961
자가	-9.52138
실망	-9.52184
▁죽음	-9.52243
르는	-9.5231
▁개그	-9.52324
이에요	-9.52355
▁물론	-9.52404
킹	-9.52427
가지	-9.52443
▁만나	-9.52444
▁없네요	-9.5249
▁가능	-9.52497
▁늘	-9.52598
떨어	-9.52614
▁알았다	-9.52651
▁알려	-9.52687
▁느끼게	-9.52695
든다	-9.52718
▁좋음	-9.52729
▁싸	-9.5273
틴	-9.52871
힌	-9.52872
▁출	-9.52905
▁읽	-9.53051
▁억지로	-9.53103
▁결혼	-9.53187
▁만들지	-9.53207
▁그게	-9.53236
▁감상	-9.53248
▁지루하	-9.53275
몽	-9.53318
버렸다	-9.53318
▁합니다	-9.53326
▁볼수	-9.53376
▁동화	-9.53509
결말	-9.53525
▁일본영화	-9.53642
▁있다는	-9.53653
................	-9.53722
▁언	-9.53739
주고	-9.53747
는걸	-9.53756
▁이리	-9.53781
하세요	-9.53933
▁여성	-9.54033
점짜리	-9.5409
▁스타일	-9.54123
▁우연히	-9.54237
▁좋았어요	-9.54258
만으로도	-9.5431
▁기대하고	-9.54414
견	-9.54441
▁커	-9.54571
▁부족한	-9.54654
▁ᄒᄒᄒ	-9.54665
▁오히려	-9.5467
▁골	-9.54785
▁대작	-9.54786
▁트	-9.54862
592	-9.54865
▁독	-9.54909
취	-9.54937
▁꺼	-9.54987
018	-9.55011
▁안보	-9.55042
재미없	-9.55099
빨	-9.55108
육	-9.55115
▁SF	-9.55128
▁믿고	-9.5519
▁에로	-9.55346
▁흐	-9.55404
▁인정	-9.55469
▁돈이	-9.55475
▁앞	-9.55522
E	-9.55581
▁분들	-9.55617
많이	-9.55651
▁귀	-9.55712
▁이야기를	-9.55726
▁소름	-9.55732
--	-9.55734
▁대한민국	-9.55865
▁킬링타임용	-9.55899
▁좀비	-9.56104
▁클	-9.5613
나게	-9.56177
▁완성도	-9.56202
▁상영	-9.56262
좋다	-9.56283
▁-_-	-9.56443
최고의	-9.565
▁처음으로	-9.56528
▁아들	-9.56537
▁액션도	-9.56563
▁아무것도	-9.5657
▁작품성	-9.56641
시켜	-9.56685
▁믿	-9.56696
▁가치	-9.56721
▁배우가	-9.56736
▁화이팅	-9.56812
▁으	-9.56858
x	-9.56963
▁신기	-9.56975
▁유머	-9.57066
▁아빠	-9.57097
▁이상한	-9.5717
전에	-9.57174
▁인간의	-9.57191
▁티비	-9.57301
▁재미있고	-9.57323
한번	-9.57326
하긴	-9.57418
▁됐	-9.57432
▁진행	-9.5745
인거	-9.57497
▁나쁜	-9.57518
▁이후	-9.57568
▁굳	-9.57586
▁성장	-9.57653
인간	-9.57682
▁수준이	-9.57705
로서	-9.57721
▁요소	-9.57756
▁싶어	-9.5779
클	-9.57796
했을	-9.57797
징	-9.57868
놓은	-9.57884
▁메세지	-9.57898
▁현재	-9.57939
▁진실	-9.57969
에겐	-9.5797
됐	-9.57971
▁나라	-9.57984
났다	-9.57991
▁수가	-9.58057
때마다	-9.58147
▁니	-9.58165
맛	-9.58177
최	-9.5819
으면서	-9.58257
▁페	-9.58277
▁비슷한	-9.58297
랄까	-9.58333
끔	-9.58337
▁뛰어	-9.58441
▁아이들이	-9.58472
▁무섭	-9.5852
▁아깝	-9.5859
그런	-9.58705
▁ost	-9.58747
▁여운	-9.58766
▁않을	-9.5881
▁청춘	-9.58844
▁천재	-9.58892
▁앞으로	-9.58911
▁안나오	-9.58962
▁불편	-9.59047
▁서로	-9.59059
▁슬프	-9.59122
픈	-9.59163
꼬	-9.59201
▁지금도	-9.59247
널	-9.59306
▁리메이크	-9.59311
황	-9.59564
▁웃겨	-9.59624
▁졸라	-9.59777
▁대단하다	-9.59801
▁질질	-9.59804
이면	-9.59942
누	-9.59959
▁특유의	-9.59961
▁마무리	-9.59996
▁전작	-9.60107
였던	-9.60135
쾌	-9.60185
▁풀어	-9.60235
▁코메디	-9.603
▁처	-9.60333
▁금	-9.60335
▁이런거	-9.60435
던가	-9.60455
▁것이다	-9.60634
꼭	-9.60706
렉	-9.60746
▁왜이리	-9.60782
▁듯한	-9.60798
▁이런걸	-9.60813
내는	-9.60851
▁재미없고	-9.61028
▁유치하고	-9.61124
사람이	-9.6116
마저	-9.61176
잉	-9.61229
▁모습이	-9.61271
▁어렸을때	-9.6138
시절	-9.6139
되지	-9.61446
학교	-9.61447
스타	-9.61553
갔다	-9.61624
한다는	-9.61663
▁그래	-9.61667
확	-9.61777
▁받	-9.61793
▁알았는데	-9.61824
▁바람	-9.61843
더군요	-9.61881
▁지루하지	-9.62027
준다	-9.62091
▁이러	-9.62189
▁액션영화	-9.62204
▁명작이다	-9.62216
▁비추	-9.62317
반전	-9.62321
▁환상	-9.62338
네여	-9.62403
역시	-9.62466
▁끌	-9.6274
려는	-9.62776
▁케	-9.62865
▁우울	-9.6292
▁장면은	-9.63112
▁않았다	-9.63158
T	-9.63225
▁않아	-9.63302
니깐	-9.63313
하지않	-9.63327
추천	-9.63399
로운	-9.63405
▁맞는	-9.63456
▁돌려	-9.63507
▁맥	-9.63522
오는	-9.63546
▁흥미	-9.63599
돼	-9.63632
▁겁나	-9.63702
▁귀여운	-9.63704
▁지난	-9.63737
▁관심	-9.63745
팔	-9.63763
점준다	-9.63966
▁프로	-9.6397
보면서	-9.63972
시고	-9.64076
없어	-9.64137
▁화려한	-9.64179
▁중간	-9.64184
▁노출	-9.64244
▁관계	-9.64259
높	-9.64371
▁아니지만	-9.64377
쩔	-9.6438
▁인상	-9.64457
▁촬영	-9.64471
~^^	-9.64576
▁최악이다	-9.64603
▁않음	-9.64609
벨	-9.64678
▁만들었다	-9.64705
▁시간낭비	-9.64706
해주는	-9.64789
홍	-9.64809
인의	-9.64831
쿠	-9.64832
스터	-9.64862
봉	-9.64882
▁사랑이	-9.64897
지않는	-9.64921
었으면	-9.65002
▁속편	-9.65096
에서는	-9.65104
앙	-9.65157
셔	-9.65176
갔	-9.65209
▁시청률	-9.65247
흐	-9.65344
받	-9.65366
▁만드	-9.65391
▁확	-9.654
▁저도	-9.6544
알바	-9.65441
했는지	-9.65574
언니	-9.65706
것이다	-9.65746
▁재밌었어요	-9.65762
뒤	-9.65795
애니	-9.65796
▁등장	-9.65814
▁급	-9.65832
무슨	-9.65912
▁게임	-9.65918
▁아오	-9.66043
을텐데	-9.66055
▁표정	-9.66115
땅	-9.66193
&	-9.66193
▁리얼	-9.66212
가족	-9.66337
▁본다	-9.66348
▁얼	-9.66356
▁티	-9.66357
▁왠지	-9.66449
▁세상에	-9.66476
으며	-9.66486
했어	-9.66504
세계	-9.666
탕	-9.6668
텐데	-9.66742
▁똑같	-9.66754
S	-9.66876
봣	-9.66958
면서도	-9.6696
▁각	-9.66982
;;;;	-9.66986
▁법	-9.67013
▁환	-9.6704
▁남주	-9.67066
한건	-9.67128
▁관람	-9.67345
▁실제	-9.67413
딩	-9.67415
▁진부한	-9.67492
▁누	-9.67502
▁나만	-9.67585
랜	-9.67633
▁영화였습니다	-9.67668
▁그렇고	-9.67731
▁받아	-9.67758
▁아닐까	-9.67805
들아	-9.67821
▁잘봤습니다	-9.67956
▁떠나	-9.68126
하자	-9.68132
량	-9.68223
센	-9.68239
▁어찌	-9.68289
▁좋았습니다	-9.68306
▁모르겠	-9.68334
*	-9.68362
지마	-9.68384
수록	-9.68471
암	-9.68478
손	-9.68488
모습	-9.68538
▁친	-9.68691
▁좋았고	-9.68693
▁마음을	-9.68698
P	-9.6877
좌	-9.6877
▁전체적으로	-9.68787
▁보고싶	-9.68798
▁보이는	-9.68867
▁C	-9.68892
방송	-9.69025
옥	-9.69027
겠네	-9.69111
던지	-9.69138
▁사건	-9.6917
닥	-9.69199
묘	-9.69252
쏘	-9.69294
an	-9.6937
ᅲᅲᅲ	-9.69515
▁또한	-9.69657
▁미치	-9.69741
▁명작이	-9.69764
ᄆ	-9.6982
▁너무나도	-9.69867
이렇게	-9.69966
▁황당	-9.70017
▁전달	-9.70051
풀	-9.70061
보게	-9.70065
▁그런데	-9.70074
▁그녀	-9.70078
끼리	-9.70114
▁탈	-9.70159
▁먼저	-9.70377
영환	-9.70417
▁씨	-9.70443
▁상상력	-9.70481
▁같습니다	-9.70491
▁일상	-9.70569
▁보여준	-9.70613
▁자유	-9.70645
▁얻	-9.70721
▁눈이	-9.70836
▁스토리에	-9.70914
▁나에게	-9.70923
▁성인	-9.70962
기억	-9.70978
▁보고나서	-9.70984
or	-9.70993
▁지금봐도	-9.71001
타임	-9.7103
▁ᄏᄏᄏᄏᄏ	-9.71033
▁삶을	-9.71071
▁소재는	-9.71129
졸	-9.71141
시간이	-9.71164
▁한계	-9.71184
▁허접한	-9.71265
▁경찰	-9.7134
▁하면	-9.71418
▁무엇보다	-9.71419
▁주인공들	-9.71419
▁대충	-9.71474
▁빨	-9.71513
▁민	-9.71566
▁사이	-9.7157
고싶다	-9.7161
에서도	-9.71708
재밌게	-9.71874
웅	-9.7193
팅	-9.71948
▁깊이	-9.71954
▁정치	-9.71966
▁중에	-9.72169
▁....	-9.72238
것같	-9.72308
특히	-9.72314
▁느껴	-9.72333
▁영화에서	-9.72453
벽	-9.72485
▁로맨틱	-9.72488
순간	-9.72508
▁행동	-9.7253
▁액션이	-9.72547
작가	-9.72569
▁성공	-9.72591
▁범죄	-9.72613
거같다	-9.72616
것은	-9.7272
분이	-9.72767
평가	-9.72791
드라	-9.72832
▁있었던	-9.72848
▁밀	-9.72859
좋았	-9.729
▁보여	-9.72903
ᅲᅲᅲᅲ	-9.73
탁	-9.73003
압	-9.73014
떡	-9.73037
▁확실히	-9.73074
스가	-9.73097
▁심심	-9.73187
▁비슷	-9.73234
▁어이없는	-9.73262
▁군대	-9.73277
▁뒷	-9.7328
▁그랬	-9.73281
▁생각한다	-9.73347
ᄏᄏᄏᄏᄏ	-9.73356
▁영화중에	-9.73402
C	-9.73449
▁접	-9.73465
▁팔	-9.7349
헤	-9.73503
드리	-9.73519
눈물	-9.73615
▁좋았음	-9.73705
무엇	-9.73747
▁이젠	-9.73823
▁춤	-9.73837
이제	-9.7385
거임	-9.74031
쇼	-9.74041
▁밑에	-9.74078
▁매력적인	-9.74122
@	-9.74133
▁글쎄	-9.74136
영상	-9.74203
한듯	-9.74258
마음	-9.74266
▁근	-9.74326
왔다	-9.74383
나옴	-9.74583
보이	-9.74701
▁와닿	-9.74705
버리고	-9.74747
▁임	-9.74778
수도	-9.74803
▁그런가	-9.74805
와서	-9.7484
▁다소	-9.74843
보세요	-9.74856
▁잘만든	-9.74902
▁병	-9.74998
▁못하고	-9.75029
▁드라마를	-9.75029
▁청	-9.75045
▁이야기가	-9.75065
있게	-9.75073
▁미안	-9.75095
▁한편	-9.75115
코미디	-9.75156
▁마치	-9.75163
▁깊은	-9.75241
▁감사합니다	-9.75309
▁이런게	-9.75325
▁싫어	-9.7534
????	-9.75408
한다면	-9.75424
▁어색한	-9.75447
▁이영화가	-9.75476
친구	-9.75547
랬	-9.75591
▁싫	-9.75636
ᄃ	-9.75703
깨	-9.75744
였어요	-9.7575
▁유쾌한	-9.75799
▁영웅	-9.75822
기엔	-9.75916
▁왜이렇게	-9.75946
하겠	-9.76052
▁같네요	-9.76157
▁답	-9.76201
엄	-9.76252
▁해준	-9.76292
▁몰랐	-9.76301
퇴	-9.76345
롱	-9.76362
▁연애	-9.76464
▁미소	-9.76479
시는	-9.76486
▁어린이	-9.76524
나고	-9.76705
▁평론가	-9.76761
겹	-9.76851
▁이쁘	-9.76895
V	-9.76916
벤	-9.76927
휘	-9.76927
▁전기세	-9.76928
뜻	-9.76931
▁낭비	-9.77004
▁카메라	-9.77013
▁좋았는데	-9.77015
▁국	-9.77152
먹는	-9.77177
었지만	-9.7719
람	-9.77199
그러	-9.77288
▁캐릭터들	-9.77346
▁용	-9.77363
시다	-9.77381
▁:	-9.77443
혁	-9.77491
▁독립영화	-9.77493
봤음	-9.77499
▁창	-9.775
▁취향	-9.77513
걸로	-9.77528
▁입니다	-9.77546
%	-9.77653
▁단순	-9.77656
▁식상	-9.77696
영화중	-9.77717
▁훨	-9.77787
▁보이	-9.77807
▁통해	-9.77977
▁매력이	-9.78014
▁눈을	-9.78052
닝	-9.78067
둘	-9.78074
▁범인	-9.781
▁제작비	-9.78177
만으로	-9.78198
▁생각나	-9.78247
지가	-9.78254
▁별로다	-9.78266
▁취	-9.78284
▁ᄉᄇ	-9.78316
▁순수한	-9.78436
▁기분이	-9.78449
놀	-9.78493
▁프로그램	-9.7852
송	-9.78584
▁잔인하	-9.78621
▁자연	-9.78626
껄	-9.78641
▁스케일	-9.78642
▁cg	-9.78653
▁처음이다	-9.78706
▁아놔	-9.78755
▁저예산	-9.7879
▁자신의	-9.78795
코드	-9.78804
거같	-9.78886
▁시도	-9.78959
하시는	-9.79041
▁진정	-9.79154
득	-9.79185
▁했지만	-9.79243
▁실패	-9.79245
▁OST	-9.79266
B	-9.79282
▁하는데	-9.79288
▁표	-9.79309
▁고민	-9.79319
▁모습을	-9.7936
▁역대	-9.79439
▁아름답다	-9.79485
▁놓	-9.79493
▁떨어지는	-9.79501
다른	-9.79542
생활	-9.79605
▁잼없	-9.79657
▁역시나	-9.79698
▁빼	-9.79799
홀	-9.79801
▁감탄	-9.79846
▁아니면	-9.79861
지않고	-9.79908
스런	-9.79977
▁중반	-9.7998
▁나를	-9.80054
▁재미있음	-9.80056
나온	-9.80068
되서	-9.80095
▁갖	-9.80115
▁재미없네	-9.80149
▁유쾌	-9.80159
몰	-9.80225
▁여자들	-9.80227
릭	-9.8036
▁애들이	-9.80371
궁	-9.80379
ᄅ	-9.80385
▁자신	-9.80435
▁봤었는데	-9.80445
▁외국	-9.80458
강추	-9.80511
▁A	-9.80555
▁스토리와	-9.80558
일뿐	-9.80595
소재	-9.80715
웃음	-9.80716
▁해주는	-9.80736
▁느껴지는	-9.8084
▁섹시	-9.80976
▁여전히	-9.81003
▁부분이	-9.81004
▁내용을	-9.81018
▁찍은	-9.81123
킨	-9.8117
내요	-9.81209
▁딴	-9.81241
▁마라	-9.81246
인것	-9.81277
▁역할	-9.81307
하는지	-9.81311
▁<	-9.81325
▁독특한	-9.81344
욱	-9.81434
즐	-9.8153
빡	-9.81537
덤	-9.81565
▁놀라	-9.81595
▁가끔	-9.81597
▁현대	-9.81604
▁여자가	-9.81709
▁붙	-9.81729
▁예전	-9.81765
▁그림	-9.81773
영화의	-9.81826
...........	-9.81887
er	-9.819
▁보지마세요	-9.81924
▁멀	-9.81971
▁평범한	-9.82009
▁사람을	-9.82013
쩌	-9.82057
▁슬픔	-9.82162
▁조폭	-9.82198
▁있나	-9.82219
으론	-9.82248
▁슬프다	-9.82251
▁죽는	-9.82272
하라	-9.82359
▁젤	-9.82373
▁그럼	-9.8239
▁신선한	-9.8243
▁귀엽고	-9.82567
▁받았	-9.82601
▁중간중간	-9.82638
▁연기력이	-9.82731
꼽	-9.82735
▁화가	-9.82741
▁심리	-9.82742
감독이	-9.82807
▁필요한	-9.82814
▁함	-9.82825
▁빠	-9.82855
찌	-9.82906
▁아름답고	-9.82997
▁전편	-9.83085
▁맨	-9.83094
없네	-9.83194
▁잔	-9.83213
▁아저씨	-9.83273
지않은	-9.83343
▁m	-9.83412
▁볼때마다	-9.83435
빵	-9.83447
▁좋을	-9.83449
▁평생	-9.83469
▁괴물	-9.83497
▁벗	-9.83512
▁재밌었는데	-9.83517
▁갑	-9.83567
▁사극	-9.83572
▁아는	-9.836
하려는	-9.83705
▁기본	-9.8372
시킨	-9.83766
▁권	-9.83771
급영화	-9.83782
▁드라마가	-9.83795
▁보고싶다	-9.83829
▁좋았	-9.83863
끝나	-9.83902
F	-9.83963
▁짓	-9.83964
▁현실성	-9.83992
▁틀	-9.84024
있어	-9.84067
끌	-9.84148
▁벌	-9.84157
짜리	-9.84158
총	-9.84189
▁시선	-9.84296
하면서도	-9.84296
▁끝나고	-9.84317
따라	-9.84431
v	-9.84516
▁느낀	-9.84584
딴	-9.84595
재미없다	-9.84608
사가	-9.8463
일이	-9.84703
▁있다면	-9.84703
유치	-9.84732
▁액션은	-9.84781
▁w	-9.84867
ᄍᄍ	-9.84885
정신	-9.84929
새끼	-9.84994
▁해야	-9.85045
▁나중에	-9.85066
까진	-9.8513
폰	-9.85191
▁예쁜	-9.852
▁찍어	-9.85202
▁초반에	-9.85229
▁악역	-9.85251
따위	-9.85303
▁호러	-9.85374
▁제작진	-9.85378
▁보기엔	-9.85403
무섭	-9.85419
▁고전	-9.85449
▁보는게	-9.85535
▁그들의	-9.85574
▁아닌데	-9.85618
▁참신	-9.85655
▁든다	-9.85671
버려	-9.85672
▁나오고	-9.85682
▁이하	-9.85699
인들	-9.85706
▁몇번	-9.85805
항	-9.85806
힐	-9.85808
▁리뷰	-9.85815
▁어릴적	-9.85852
함과	-9.85888
▁몰입이	-9.85896
더만	-9.85962
하는것	-9.85984
▁용서	-9.86022
딸	-9.86119
▁홍	-9.86148
쓴	-9.86149
려면	-9.86155
지마라	-9.86195
▁가진	-9.86229
▁어이가	-9.86317
▁말할	-9.86422
멘	-9.86429
▁사랑하는	-9.86445
▁표절	-9.86454
▁살짝	-9.8646
//	-9.86508
만화	-9.86512
▁브	-9.86665
프로	-9.86676
▁감동적이고	-9.86797
▁후반	-9.86885
▁음악이	-9.86937
맞추	-9.86986
식으로	-9.87046
▁저렇게	-9.87055
틈	-9.87055
온다	-9.87127
▁+	-9.87135
▁희망	-9.87138
▁추천합니다	-9.87203
▁기대를	-9.87254
▁전에	-9.87269
▁미래	-9.87282
▁드는	-9.87292
많은	-9.8733
▁남는다	-9.87343
▁풀	-9.87422
웠다	-9.87425
▁꼴	-9.87428
▁어렸을	-9.87487
빙	-9.87509
▁소재를	-9.87528
▁이유가	-9.87575
먹고	-9.87579
▁흘러	-9.87622
▁이건뭐	-9.87639
▁연기에	-9.87677
▁그럭저럭	-9.87683
컨	-9.87683
낼	-9.87684
▁이연걸	-9.87685
▁알바들	-9.87714
▁지루할	-9.87741
스의	-9.87801
좋아요	-9.87804
흔	-9.87895
테러	-9.87896
▁영화이다	-9.87912
▁감동적	-9.87994
▁죄	-9.88033
▁시원	-9.88112
었고	-9.88132
▁안하고	-9.88138
▁몰입감	-9.88195
이며	-9.8826
▁잼있게	-9.88261
굴	-9.88302
하다가	-9.88302
▁압권	-9.88317
▁송	-9.88325
▁넣	-9.88364
▁팬이	-9.88399
것들	-9.88418
수있	-9.88442
▁의심	-9.88494
짜증	-9.88499
▁안되고	-9.88506
▁그의	-9.88547
▁결과	-9.88549
▁끝난	-9.88587
▁식	-9.88632
쳤	-9.88641
안되	-9.88653
▁짜증나는	-9.88671
하다니	-9.88716
▁싫다	-9.88776
만들어	-9.88795
▁굳이	-9.88815
받고	-9.88853
한게	-9.88893
▁15	-9.88917
값	-9.88953
▁불쾌	-9.88988
▁홍콩	-9.89031
나올	-9.89079
▁연기와	-9.89079
▁영화관	-9.89101
▁재밌습니다	-9.8919
제목	-9.89266
▁결	-9.89453
▁무지	-9.89485
▁짠	-9.89487
▁퍼	-9.89529
잼있	-9.89563
뻐	-9.89572
같음	-9.8958
섬	-9.89594
▁폭	-9.89599
더라구요	-9.89608
▁나왔으면	-9.89618
▁나가	-9.89644
▁과연	-9.89651
▁아닌듯	-9.8968
▁드러	-9.89737
▁포장	-9.89742
▁봤다가	-9.8976
받은	-9.89784
▁만들어진	-9.89788
한것	-9.89829
할듯	-9.89908
설정	-9.8994
씨가	-9.89942
▁다르	-9.89959
▁안됨	-9.90011
죄	-9.90039
A	-9.90054
▁올라	-9.90111
on	-9.90142
협	-9.90186
것만	-9.90218
▁희생	-9.90272
감을	-9.90303
▁하게	-9.9037
줌	-9.90381
는건지	-9.90448
▁합	-9.90458
▁티비에서	-9.90474
▁불쌍	-9.90486
학생	-9.90498
되네요	-9.90499
▁느끼는	-9.90521
▁더이상	-9.90606
잃	-9.90642
,,,,	-9.90678
골	-9.90683
▁포기	-9.90732
▁뮤지컬	-9.90734
▁라는	-9.90751
하구	-9.90765
▁스타	-9.90778
▁긴장	-9.90824
갓	-9.90889
▁열심히	-9.90889
(?)	-9.9089
시키는	-9.909
▁적당	-9.90907
▁몸매	-9.90935
▁운	-9.90937
▁무협	-9.90943
줬	-9.90969
번째	-9.90998
점주는	-9.91043
▁설레	-9.91114
▁빛	-9.91131
▁사는	-9.91153
▁우정	-9.91169
▁스토리를	-9.91189
▁판	-9.91197
한국	-9.91265
인생	-9.91272
머리	-9.91306
▁나서	-9.9131
▁같아	-9.91328
말고	-9.91334
▁개판	-9.91344
진심	-9.91365
누나	-9.91467
▁G	-9.91522
콜	-9.91531
▁공감이	-9.91598
▁재밌었	-9.916
재밌어요	-9.91622
▁달리	-9.91716
갑니다	-9.91824
▁이기	-9.91834
▁다행	-9.91853
▁주인공의	-9.91892
▁낫	-9.91903
▁말로	-9.92106
안에	-9.92158
▁진심으로	-9.92218
▁남기	-9.92219
▁종교	-9.92237
▁자막	-9.92323
▁풍	-9.92387
O	-9.92416
▁처음엔	-9.9243
▁되었	-9.92451
이해	-9.92515
▁생각합니다	-9.92535
하려고	-9.92565
아님	-9.92598
▁동물	-9.92644
폭	-9.9269
▁메시지	-9.92724
▁보시길	-9.92811
▁채널	-9.92869
▁분노	-9.92955
▁그렇다	-9.93021
▁다만	-9.93035
있었	-9.9308
▁볼만함	-9.93092
▁볼거리	-9.93093
▁많다	-9.93104
▁영화지만	-9.93109
▁있지	-9.93111
▁사랑에	-9.93201
▁먼	-9.93223
▁능력	-9.93285
▁사랑과	-9.93294
▁폭력	-9.93294
첨	-9.9339
▁난다	-9.93438
져서	-9.93481
▁같음	-9.93486
▁영화보고	-9.93494
▁루	-9.93496
▁덜	-9.93525
았음	-9.93526
쯧	-9.93529
▁허술	-9.93546
▁상처	-9.93573
턴	-9.93587
하지도	-9.93588
▁재미를	-9.93622
▁고생	-9.93661
▁추억의	-9.93669
▁이정도면	-9.93709
▁썩	-9.93762
▁만든다	-9.93964
▁I	-9.9407
험	-9.94081
명이	-9.94146
▁여러	-9.9417
▁쓰래기	-9.94201
▁긴	-9.94253
▁그다지	-9.94258
▁생각나는	-9.943
▁필	-9.94346
▁되었다	-9.94393
자는	-9.94409
▁소녀	-9.9441
년전에	-9.94425
힘	-9.94487
!!!!!	-9.94535
티비	-9.94571
▁반성	-9.94642
▁지루해서	-9.94677
▁빠져들	-9.94785
스러움	-9.94876
in	-9.94887
표현	-9.94916
▁볼수록	-9.94971
▁필요없다	-9.94988
▁되게	-9.95009
▁필요없는	-9.95067
관계	-9.95121
▁재미있네요	-9.95144
▁제목이	-9.95182
.......	-9.95266
이유	-9.9547
▁죽어	-9.95519
▁봤으면	-9.95556
▁힐링	-9.95557
▁소름돋	-9.95562
M	-9.95568
▁빈	-9.95587
▁40	-9.95694
▁중요한	-9.95721
▁인기	-9.95729
▁좋습니다	-9.95731
해준	-9.95739
▁무섭다	-9.95846
▁아침	-9.95895
▁십	-9.95958
할수있	-9.95992
▁아련	-9.95995
거라	-9.95998
▁어제	-9.96017
혼	-9.96095
▁과정	-9.96101
평점이	-9.96103
▁드라마는	-9.96137
▁몇번을	-9.96171
자체	-9.96205
▁디즈니	-9.96241
▁비주얼	-9.96241
▁쉽게	-9.96248
속에서	-9.96262
▁퀄리티	-9.96273
▁없지만	-9.96317
▁높다	-9.96334
▁가지	-9.96355
리아	-9.96417
▁꾸	-9.96426
▁좋았던	-9.96491
▁어쩔	-9.96527
나와	-9.96628
느라	-9.96628
▁삶의	-9.96758
지를	-9.96824
ᅡ	-9.96931
▁가볍게	-9.96931
칸	-9.96931
▁싸구려	-9.96931
▁엉성한	-9.96931
▁언제나	-9.96938
▁흐름	-9.96959
▁남을	-9.96967
▁조잡	-9.97064
▁감동과	-9.97092
▁전투	-9.97147
▁했던	-9.97201
정이	-9.97207
▁재밌네	-9.97262
▁배우의	-9.97282
▁봐야할	-9.97312
▁올리	-9.97332
▁하루	-9.97343
▁유치함	-9.97362
으로서	-9.9748
▁보고싶은	-9.97509
▁다큐멘터리	-9.97625
▁해피엔딩	-9.97625
댄	-9.97625
▁묘사	-9.97635
재밌다	-9.97697
▁아쉬움	-9.97706
▁울었	-9.97731
▁그려	-9.97753
▁직	-9.97807
▁칼	-9.97825
▁올해	-9.9783
bb	-9.97851
얘기	-9.97884
용으로	-9.97953
▁빵	-9.9797
▁해주	-9.98024
▁놈	-9.98053
째	-9.98102
▁죽을	-9.98107
▁ᅮ	-9.9811
▁밥	-9.98139
▁크게	-9.98228
▁오버	-9.98263
▁정서	-9.98279
j	-9.98325
▁ᄃᄃ	-9.98418
▁이유는	-9.98751
▁S	-9.98785
▁늘어	-9.98849
아주	-9.9889
▁그걸	-9.98925
즘	-9.98964
▁멋	-9.98985
▁최근	-9.99043
▁눈빛	-9.99045
▁북한	-9.99052
▁있으	-9.99136
캐릭터	-9.99152
▁믿을	-9.99184
내고	-9.99298
▁짱짱	-9.99319
▁광고	-9.99333
▁킬링타임	-9.99335
▁아깝지	-9.99354
내용이	-9.99358
▁빠지	-9.99397
였지만	-9.99405
▁만큼	-9.99468
막장	-9.99548
했네	-9.99646
봤어요	-9.99667
택	-9.99668
▁젊은	-9.99686
릿	-9.99728
▁못했다	-9.99735
헌	-9.99738
스러웠	-9.9975
님의	-9.99771
▁몰라도	-9.99794
ᄃᄃ	-9.99795
▁남녀	-9.99871
하려	-9.99925
엄마	-9.99942
re	-9.99949
▁헤	-9.99987
▁소재가	-10.0001
▁재밋게	-10.0006
▁게이	-10.0006
줄이야	-10.0018
짧	-10.0022
했다는	-10.0035
시간에	-10.0036
▁열정	-10.0038
▁웬	-10.0045
포인트	-10.0046
▁통쾌	-10.0047
▁동생	-10.0047
엘	-10.0063
있는데	-10.0067
▁우리가	-10.007
▁돌아가	-10.007
놨	-10.0075
▁빌	-10.0075
▁보았	-10.0078
아깝	-10.0086
자의	-10.009
시길	-10.0093
보지	-10.01
▁70	-10.0102
▁영화인	-10.0107
상을	-10.0107
봣는데	-10.0109
▁남아	-10.0116
▁보지마	-10.0116
R	-10.0117
녕	-10.0117
▁나머지	-10.0118
좋아하는	-10.0122
식이	-10.0124
▁다시한번	-10.0128
착	-10.0129
접	-10.013
넣	-10.0132
▁뜨	-10.0135
하셨	-10.0146
찾	-10.0146
▁의문	-10.0151
했나	-10.0153
얘	-10.0162
▁멋지다	-10.0164
놔	-10.0175
웨	-10.0179
룡	-10.0185
▁히	-10.0186
탐	-10.019
렁	-10.019
▁펑펑	-10.019
어진	-10.0196
▁마세요	-10.0199
집니다	-10.0201
영화로	-10.0202
스릴러	-10.0212
▁비극	-10.0214
▁음악도	-10.0223
▁샤	-10.023
▁맡	-10.0233
▁재밋다	-10.0238
▁맘	-10.0238
전쟁	-10.0247
▁달라	-10.0248
▁끝나는	-10.0258
▁끊	-10.0259
뿌	-10.0259
농	-10.0263
▁슬프고	-10.0267
▁아픔	-10.0269
▁반전도	-10.0271
▁생애	-10.0273
현실	-10.0274
▁존경	-10.0274
연기가	-10.0276
▁이쁜	-10.0278
ᄏᄏᄏᄏᄏᄏᄏᄏᄏᄏᄏᄏᄏᄏᄏᄏ	-10.0289
기분	-10.029
프리	-10.0303
겟다	-10.0317
▁좋아서	-10.0318
가지고	-10.0319
수있는	-10.0322
되면	-10.0327
형제	-10.033
▁뇌	-10.0331
▁찡	-10.0333
N	-10.0336
▁연예인	-10.0336
▁느꼈	-10.034
▁뛰어난	-10.0341
괜찮	-10.0344
▁사랑스러운	-10.0346
오브	-10.0347
▁끄	-10.0347
대사	-10.035
력이	-10.0353
르고	-10.0353
도아니고	-10.0356
♥♥	-10.0356
만의	-10.036
▁없나	-10.0362
끈	-10.0362
▁소재로	-10.0366
▁죽여	-10.0369
젠	-10.0378
▁따뜻	-10.0388
▁이제야	-10.0389
▁있게	-10.0389
▁잊	-10.0389
하신	-10.0407
▁헐리우드	-10.041
씹	-10.041
▁드럽게	-10.041
▁형편없	-10.0411
▁둘다	-10.0413
▁시사회	-10.0414
▁점수를	-10.0415
▁영화냐	-10.0415
▁발전	-10.0415
까지는	-10.0418
▁봣	-10.0427
▁잔인한	-10.0429
▁재밌었음	-10.0431
▁찍었	-10.0431
▁가서	-10.0433
믿	-10.0436
좋고	-10.0436
▁쫌	-10.0437
▁킬링타임용으로	-10.0439
▁딱히	-10.0446
아까움	-10.0447
▁유치하다	-10.0454
었어	-10.0458
웃기	-10.046
공포	-10.0467
세기	-10.0467
나와서	-10.0467
할까	-10.047
볼만	-10.0476
▁인생을	-10.0482
균	-10.0483
▁밋밋	-10.0485
컷	-10.0485
텔	-10.0485
팀	-10.0485
▁어려운	-10.0485
▁섹스	-10.0485
▁침	-10.0489
점준	-10.049
▁웃기고	-10.0495
▁낮아서	-10.0497
▁악당	-10.0497
▁홍보	-10.0499
당한	-10.0503
▁정말로	-10.0509
콩	-10.0523
로써	-10.0523
맘	-10.0527
▁산으로	-10.0531
▁슬	-10.0533
▁귀엽	-10.0535
개봉	-10.0539
▁재미있었다	-10.0548
▁봣는데	-10.0549
▁자극	-10.0554
중의	-10.0556
있음	-10.0557
솔	-10.056
밝	-10.056
▁로그인	-10.056
▁쵝오	-10.056
▁방금	-10.0566
▁우주	-10.0567
▁잊혀지지	-10.0567
▁ᄋᄋ	-10.0567
▁느와르	-10.0569
영화라고	-10.0569
냈	-10.0587
▁전설	-10.0587
ᄏᄏᄏᄏᄏᄏᄏᄏᄏ	-10.0602
▁그린	-10.0604
왔는데	-10.0605
틱	-10.0611
▁나쁘지	-10.0614
▁느껴지	-10.0633
워서	-10.0634
▁베스트	-10.0642
▁만들고	-10.0652
▁평범	-10.066
▁할말	-10.066
▁볼만하다	-10.067
▁d	-10.0682
▁죄다	-10.0691
버림	-10.0693
구성	-10.0694
님이	-10.0695
▁문화	-10.0701
빼고	-10.0702
았던	-10.0704
▁엉망	-10.0704
X	-10.0711
아라	-10.0712
붕	-10.0712
▁아름다움	-10.0712
멸	-10.0712
털	-10.0712
▁현실적이	-10.0715
▁연출도	-10.0726
▁대표	-10.0727
보고싶	-10.0727
▁지구	-10.0732
들만	-10.074
한다고	-10.074
▁순수	-10.0743
▁사람의	-10.0744
야할	-10.0745
답답	-10.0747
▁않게	-10.075
▁이따위	-10.0752
몸	-10.0758
▁푹	-10.076
▁어른	-10.0762
사는	-10.0765
▁평이	-10.0766
사이	-10.0785
안타깝	-10.0787
]	-10.0789
▁불구하고	-10.0789
▁무언가	-10.0789
▁어머니	-10.0793
▁국민	-10.0794
▁고통	-10.0796
▁연결	-10.0796
았는데	-10.0801
▁단연	-10.0805
▁살리	-10.0819
▁무서워	-10.0822
▁뭐라	-10.0824
▁여기서	-10.0825
캐	-10.0828
▁끌어	-10.0832
▁채	-10.0836
인가요	-10.0839
▁탄탄한	-10.0848
."""	-10.0853
▁옛날에	-10.0862
흑	-10.0864
▁청소년	-10.0867
▁결말도	-10.0872
▁볼만하	-10.0874
엔딩	-10.0876
▁생생	-10.0881
▁힘들다	-10.0881
▁오글거리	-10.0883
▁있습니다	-10.0886
대는	-10.0886
▁몰입해서	-10.0888
........	-10.0889
▁시청	-10.089
▁눈물을	-10.0891
사회	-10.0891
▁출연진	-10.0894
▁가득	-10.0896
▁시걸	-10.0903
▁재미없어요	-10.0911
▁되지	-10.0911
젤	-10.0917
수없는	-10.0921
▁매력있	-10.0921
▁결말은	-10.0925
▁봤었	-10.0937
▁T	-10.0937
▁니들	-10.0938
로우	-10.0941
스타일	-10.0944
묵	-10.0945
▁꽃	-10.0952
▁있어요	-10.0953
▁빌려	-10.0958
▁아직까지	-10.0963
▁많았	-10.097
▁c	-10.0972
무비	-10.0974
했으나	-10.0974
▁보아	-10.0983
▁많아	-10.0991
▁네	-10.0996
▁집에서	-10.0996
▁단순한	-10.0999
▁연속	-10.1
▁한국인	-10.1001
편의	-10.1008
▁아마	-10.101
▁충분	-10.1015
씬은	-10.1015
소설	-10.1023
몬	-10.1023
▁헐리웃	-10.1023
▁차이	-10.1025
▁슬퍼	-10.1025
ing	-10.1025
▁흔한	-10.1026
▁시시	-10.1038
▁되고	-10.1039
해주세요	-10.104
▁안돼	-10.1049
▁현실적인	-10.105
▁느낌을	-10.1064
▁철	-10.1066
닌	-10.1072
▁전문가	-10.1076
떠	-10.1076
몇	-10.1083
▁높아	-10.1095
▁핵	-10.1097
아니다	-10.1097
세상	-10.11
꿀	-10.1101
▁거지	-10.1102
편보다	-10.1103
▁와우	-10.1103
줍니다	-10.1103
▁즐겁게	-10.1103
스러워	-10.1105
▁뒤로	-10.1109
▁나왔다	-10.111
▁영국	-10.1119
▁괜찮았	-10.1127
▁떠나서	-10.1127
▁행	-10.1131
▁할말이	-10.1133
▁질리지	-10.1141
▁싶네요	-10.1143
▁심장	-10.1146
▁찌	-10.1151
▁표현한	-10.1151
사람은	-10.1152
가슴	-10.1158
자체가	-10.1162
아요	-10.1164
연기도	-10.1165
▁유명	-10.1166
▁투자	-10.1169
▁대화	-10.117
▁사기	-10.117
낭비	-10.1171
▁멍청한	-10.1172
버리는	-10.1175
▁매력적이	-10.1176
했네요	-10.1178
장난	-10.1179
▁;;	-10.118
엠	-10.1183
략	-10.1183
▁레전드	-10.1183
▁발견	-10.1187
▁죽이	-10.1189
긴한데	-10.1191
▁ᅲᅲᅲ	-10.1198
▁뻔하고	-10.12
▁남겨	-10.1205
셔서	-10.1206
▁말을	-10.1209
▁생각없이	-10.1217
와는	-10.1217
▁잔잔하고	-10.1224
▁월	-10.1228
▁뻔하	-10.123
숨	-10.123
원작	-10.1231
▁이후로	-10.1233
▁들었	-10.1239
▁알겠	-10.1251
야한다	-10.1254
중에서	-10.1255
▁시간을	-10.1261
▁견자단	-10.1263
▁러닝타임	-10.1263
▁위대한	-10.1264
▁무서웠	-10.1264
▁바뀌	-10.1264
▁살아있	-10.127
점수	-10.1271
친다	-10.1275
▁10277	-10.1275
노래	-10.1276
▁시대를	-10.1282
님들	-10.1286
에대한	-10.1287
영화임	-10.1287
▁지나치	-10.1288
▁나오면	-10.1288
▁쓸	-10.1291
아까	-10.1292
꾸	-10.1293
▁전체	-10.1296
▁예쁘	-10.1296
▁하면서	-10.13
았습니다	-10.1301
장면이	-10.1309
같고	-10.1312
▁않지만	-10.1313
▁이거보고	-10.1318
▁남자가	-10.132
유발	-10.1321
▁야한	-10.1323
더라도	-10.1326
흥	-10.1327
st	-10.1328
내용도	-10.1334
하는건	-10.1336
보는내내	-10.1338
▁재밌을	-10.1339
부족	-10.1341
▁뜻	-10.1343
▁미드	-10.1343
혈	-10.1345
▁시트콤	-10.1345
▁기대안하고	-10.1345
▁무엇을	-10.1348
▁에휴	-10.1348
▁명품	-10.1348
▁배우들도	-10.1351
▁특이	-10.1352
▁상업	-10.1354
▁외모	-10.1358
▁느낄수	-10.136
▁인도	-10.1363
▁나옴	-10.1364
▁유쾌하고	-10.137
나이	-10.1382
▁인간들	-10.1397
▁무시	-10.1405
▁있으면	-10.1409
잠	-10.141
냥	-10.1412
▁개인	-10.1418
옹	-10.1425
▁지금은	-10.1426
땡	-10.1427
▁누군가	-10.1427
▁작가가	-10.1427
나가는	-10.1428
▁안타깝다	-10.1429
▁알수	-10.1432
메이	-10.1434
편을	-10.1441
▁이해할	-10.1446
▁보았다	-10.1453
▁독특	-10.1454
보자	-10.1455
▁보길	-10.146
만이	-10.1462
▁귀여워	-10.1465
▁끼	-10.1466
▁보니까	-10.1466
OOO	-10.147
이라서	-10.147
끄	-10.1476
늘	-10.1476
▁귀여	-10.1477
▁때문	-10.148
이니	-10.1484
럼	-10.1485
ᅲᅮ	-10.1494
계의	-10.1501
나온다	-10.1505
낫	-10.1506
다는게	-10.1507
▁못할	-10.1508
▁기독교	-10.1509
톰	-10.1509
톱	-10.1509
▁벌써	-10.1511
▁말하는	-10.1513
▁맨날	-10.1514
▁반복	-10.1518
▁발로	-10.1523
▁좀더	-10.1526
▁끝이	-10.1529
거면	-10.1534
▁일반	-10.1536
만드는	-10.1537
시작	-10.1539
일본	-10.1547
지지	-10.1548
▁국내	-10.1549
▁갔	-10.155
▁이런영화가	-10.1553
▁왠	-10.1562
▁건지	-10.1569
▁앤	-10.1575
푸	-10.1578
▁못한다	-10.1579
간의	-10.1579
는것도	-10.1581
▁50	-10.1585
▁중요	-10.1586
기위해	-10.1588
▁촌	-10.1588
▁내려	-10.1589
잤	-10.1591
떄	-10.1593
`	-10.1593
▁김기덕	-10.1593
▁마이클	-10.1593
쓰고	-10.1598
으려	-10.1608
▁하네요	-10.1611
▁영화에요	-10.1612
엇다	-10.1615
제작	-10.1627
으로써	-10.1635
▁한참	-10.1651
▁개연성이	-10.1653
▁안보고	-10.1664
하더라	-10.1672
▁인간이	-10.1673
▁눈에	-10.1674
마리	-10.1675
▁즐거운	-10.1677
▁보고나면	-10.1677
아가	-10.168
▁지켜	-10.1684
▁단지	-10.1686
▁시각	-10.1689
▁장면에서	-10.1691
▁울었다	-10.1697
▁보시	-10.17
극장	-10.1702
▁못해	-10.1715
계속	-10.1721
우리	-10.1727
▁좋았을	-10.1729
그래	-10.1731
해야지	-10.1734
줄알았	-10.1738
it	-10.1739
▁의리	-10.174
더라면	-10.1742
▁보인다	-10.1743
▁잊지	-10.1743
▁싶었	-10.1747
남는	-10.1748
▁굿굿	-10.1752
▁진리	-10.1754
▁솔직	-10.1755
▁당시에	-10.1757
▁스스로	-10.1762
▁아이돌	-10.1768
▁코난	-10.1772
▁주변	-10.1774
▁모든게	-10.1774
형님	-10.178
▁최고입니다	-10.1782
▁같아서	-10.1782
▁옛	-10.1784
▁누구나	-10.1787
▁진지	-10.1789
도안	-10.1789
까요	-10.1794
잇는	-10.1798
▁아나	-10.1798
▁음악과	-10.1804
▁멋있다	-10.181
고싶어	-10.1812
이자	-10.1814
▁가져	-10.1816
▁유명한	-10.1826
▁있네요	-10.1827
▁생각하는	-10.1838
흘	-10.1845
뛰	-10.1846
하던데	-10.1847
떼	-10.1847
례	-10.1847
▁뭉클	-10.1847
▁the	-10.1847
▁슬펐	-10.1847
▁검색	-10.1848
봅니다	-10.1849
▁따뜻해지는	-10.185
받는	-10.1852
▁갈등	-10.1853
▁찌질	-10.1854
갈수록	-10.1857
지말고	-10.1861
▁철학	-10.1863
▁볼게	-10.1867
그리	-10.1871
▁영어	-10.1879
▁우와	-10.1887
▁영화였어요	-10.1888
▁미모	-10.1891
▁울고	-10.1895
▁남편	-10.1898
적은	-10.1898
▁없는데	-10.19
냈다	-10.1902
ᄃᄃᄃ	-10.1905
▁친구들	-10.1907
▁그렇다고	-10.1912
▁긴장감도	-10.1914
▁생각하고	-10.1914
▁왜케	-10.1916
적이다	-10.1917
?!	-10.1922
▁이쁘고	-10.1924
▁한데	-10.1926
▁흥	-10.1926
ᅵ	-10.1933
쥬	-10.1933
▁로봇	-10.1934
▁의외로	-10.1935
몰입	-10.1935
▁"""""""	-10.1936
▁재미있었	-10.1937
▁이쁘다	-10.1938
▁재미있었어요	-10.1941
▁쇼	-10.1948
▁푸	-10.1949
▁관객들	-10.1951
▁나오지	-10.1951
▁무비	-10.1955
▁줌	-10.1957
였어	-10.1963
기로	-10.1965
▁공부	-10.1976
였고	-10.1978
▁빼고	-10.1983
ar	-10.1988
.........	-10.1993
▁웃음이	-10.1997
▁엘	-10.1999
해진	-10.2001
▁조연	-10.2002
▁하는지	-10.2006
▁떨어지	-10.2017
▁봤더니	-10.202
▁짝퉁	-10.202
겁니다	-10.2024
▁달달	-10.2027
▁10275	-10.2033
▁멍청	-10.2033
▁학교에서	-10.2037
▁싶지	-10.2038
▁제로	-10.204
▁무척	-10.2041
▁쩐다	-10.2042
뭔	-10.2053
쉽	-10.2075
▁부모	-10.2085
해진다	-10.2086
▁혼	-10.2087
줘서	-10.2097
▁모르겠고	-10.2105
낀	-10.2107
뮤	-10.2108
▁마이너스	-10.2108
▁초등학생	-10.2108
롤	-10.2108
탓	-10.2108
G	-10.2109
▁새롭	-10.211
▁어휴	-10.2117
▁기술	-10.2121
줬다	-10.2123
드립니다	-10.2127
▁좋아할	-10.2127
빼곤	-10.2128
0%	-10.2128
▁허세	-10.2137
▁신파	-10.2141
만큼은	-10.2142
▁인생의	-10.2142
있어서	-10.2144
▁작품을	-10.215
▁신선하고	-10.2152
심각	-10.2157
모르겟	-10.2161
▁무리	-10.2165
씨의	-10.2167
▁않나	-10.2167
▁꿈을	-10.2168
▁대사가	-10.2187
▁속에	-10.2189
▁어렵	-10.219
▁진부	-10.219
뽑	-10.2193
▁슈퍼	-10.2195
▁잘만들	-10.2196
▁장면들	-10.2198
▁최강	-10.2204
▁틀어	-10.2207
지도않고	-10.2209
ᄌ	-10.221
▁받을	-10.2216
▁노답	-10.2218
▁아쉽네요	-10.2222
▁지루했다	-10.2225
▁극치	-10.2226
▁가면	-10.2229
▁수도	-10.223
보인다	-10.2234
▁인물들	-10.2238
▁좋지만	-10.2242
▁망한	-10.2244
하기만	-10.2246
▁볼수있	-10.2252
뻔한	-10.2252
▁한심	-10.2254
이였다	-10.2256
▁오바	-10.2257
▁덕분에	-10.2261
en	-10.2263
▁헤어	-10.2268
쳤다	-10.2274
▁손발이	-10.2277
▁여행	-10.228
▁대부분	-10.2285
깜	-10.2286
뽕	-10.2286
▁흥미로운	-10.2287
깔	-10.2302
I	-10.2303
▁모르겠지만	-10.2304
아쉽	-10.2317
▁착	-10.2321
▁착한	-10.2323
▁이미지	-10.2335
▁작품이다	-10.2337
짜증나	-10.2339
지네요	-10.2345
▁잼나	-10.2356
▁할수	-10.2361
▁감정을	-10.2367
했을까	-10.2367
춰	-10.2374
꾼	-10.2375
뚱	-10.2376
▁어처구니	-10.2376
▁더러운	-10.2376
▁주성치	-10.2376
▁낳	-10.2377
▁인상적이	-10.2378
아쉬웠	-10.2379
▁즐기	-10.238
▁기다리	-10.2383
▁세월	-10.2383
▁아역	-10.2383
▁조합	-10.2389
있나	-10.2391
▁부르	-10.2395
▁박수를	-10.2396
차라리	-10.2397
▁좋게	-10.2397
▁해석	-10.2401
▁부족하다	-10.2403
연기력	-10.2412
▁자살	-10.2419
개도	-10.2422
켜	-10.2423
▁논	-10.2427
자를	-10.2431
▁있어야	-10.2432
이런영화	-10.2439
동생	-10.2442
▁하나하나	-10.2444
▁빼고는	-10.2445
▁[	-10.2448
재밌음	-10.2448
ᄋᄋ	-10.2462
명의	-10.2462
쳐서	-10.2464
▁확실	-10.2465
▁부터	-10.2465
버릴	-10.2465
컬	-10.2466
렷	-10.2467
칙	-10.2467
▁더불어	-10.2467
▁좋았으나	-10.2469
▁경험	-10.2469
▁복잡	-10.247
▁일품	-10.2476
▁양심	-10.2477
내내	-10.2481
▁좋았지만	-10.2484
밥	-10.2491
▁없었던	-10.2496
봐요	-10.2496
▁싶을	-10.2501
▁자식	-10.2502
▁암튼	-10.252
어라	-10.2531
없어서	-10.2536
봐야지	-10.2547
하기엔	-10.2554
▁연기자들	-10.2556
ᄇ	-10.2557
랫	-10.2558
▁아름다웠	-10.2558
▁카리스마	-10.2558
▁직접	-10.2559
흘리	-10.256
▁지루하게	-10.256
▁방법	-10.2563
▁한번쯤	-10.2566
"""""""	-10.257
▁살고	-10.2581
▁영화인듯	-10.2581
▁삶에	-10.2585
쥐	-10.2586
▁힘이	-10.2586
하지마라	-10.2587
맥	-10.2588
..........	-10.2595
문제	-10.26
▁끝났	-10.2605
기법	-10.2606
문화	-10.2624
▁웃김	-10.2624
▁연기력도	-10.2627
됐다	-10.2635
매력	-10.2636
▁아이가	-10.2638
▁최대	-10.264
스키	-10.2641
능력	-10.2642
텐	-10.2643
쭉	-10.2651
▁고양이	-10.2651
▁예뻐	-10.2654
▁웃기지도	-10.2658
▁아줌마	-10.2662
▁설마	-10.2668
하기도	-10.267
▁본인	-10.2678
▁씬	-10.2683
▁의미를	-10.2685
▁말하고	-10.2687
슬프	-10.2687
▁괜찮다	-10.2688
머니	-10.2693
점정도	-10.2696
럴	-10.2697
끝까지	-10.2704
▁주말	-10.2723
▁작은	-10.2723
콘	-10.2737
▁그럴	-10.2739
액	-10.2743
▁포르노	-10.2744
▁에피소드	-10.2744
▁패러디	-10.2744
둔	-10.2744
▁크리스마스	-10.2744
밍	-10.2744
▁외계인	-10.2744
▁싸이코	-10.2744
▁챙겨	-10.2745
▁교육	-10.2746
▁화끈	-10.2747
안되는	-10.2751
▁역대급	-10.2752
감동적	-10.2753
ᄏᄏᄏᄏᄏᄏᄏᄏᄏᄏᄏᄏᄏ	-10.2754
▁여태	-10.2761
▁게다가	-10.2761
▁넘치는	-10.2773
꿀잼	-10.2774
▁죽은	-10.2775
▁잼있다	-10.2788
배경	-10.2797
▁본다면	-10.2798
▁보자	-10.2804
▁사랑은	-10.2806
▁쓰레기같은	-10.2808
▁충	-10.2809
했었	-10.281
▁평점보고	-10.2812
▁쓰레기다	-10.2815
▁꽝	-10.2816
▁이유를	-10.2821
▁케이블	-10.2822
▁좋아해서	-10.2825
년만에	-10.2827
겠어요	-10.2827
앞	-10.2839
▁아까울	-10.2839
▁스파이	-10.2839
ᅮᅮᅮ	-10.284
▁느껴진다	-10.2841
▁크리스	-10.2841
▁반개도	-10.2842
저리	-10.2843
▁보러	-10.2844
쟁이	-10.2855
▁일이	-10.2858
편도	-10.2863
인건	-10.2866
▁원작의	-10.2868
읽	-10.2868
▁기대했는데	-10.2871
주면	-10.2873
<	-10.2876
꼴	-10.2877
▁중에서	-10.2879
▁안나	-10.2881
▁피해자	-10.2882
▁살려	-10.2883
요즘	-10.2883
▁행복한	-10.2885
▁군	-10.2888
▁썼	-10.289
▁실제로	-10.2892
▁보며	-10.2894
▁한명	-10.291
빠르	-10.291
말이필요없	-10.2914
닐	-10.292
▁사랑의	-10.292
제발	-10.2925
▁원작이	-10.2926
▁전설의	-10.293
▁엄	-10.2932
셈	-10.2933
뉴	-10.2933
콧	-10.2934
K	-10.2934
층	-10.2934
▁깜짝	-10.2934
▁모르게	-10.2937
었네	-10.2938
▁좋겠어요	-10.2939
▁이해하기	-10.2946
▁오글	-10.2947
▁안맞	-10.2963
치곤	-10.2973
빌	-10.2974
▁주기	-10.2974
▁ᄋ	-10.2976
▁볼만했	-10.2984
몰라	-10.2984
▁관한	-10.2985
▁들어가	-10.2987
▁평론가들	-10.2995
▁개성	-10.2996
▁진부하고	-10.2996
▁올려	-10.3003
▁힘들었	-10.3007
속의	-10.301
했었는데	-10.3016
▁남자의	-10.3019
기까지	-10.3023
▁용기	-10.3023
껴	-10.3028
▁동안	-10.3028
▁젠장	-10.303
냄새	-10.3031
감독님	-10.3032
히어로	-10.3032
▁일어나	-10.3035
▁레알	-10.3036
▁시청자	-10.3037
▁개막장	-10.304
부작	-10.3041
잡고	-10.3043
▁10276	-10.3051
자나	-10.3057
돋	-10.3058
▁이래	-10.3061
▁가슴에	-10.3065
볼수	-10.3071
▁비판	-10.3071
▁감동적이다	-10.3073
샤	-10.3073
▁없지	-10.3074
공감	-10.3082
▁보여준다	-10.3087
▁할까	-10.3095
▁잔잔하	-10.3095
새끼들	-10.3097
▁낮네	-10.3103
고싶은	-10.3109
▁재밌다고	-10.3111
▁아프	-10.3114
▁보려고	-10.3116
쌍	-10.3123
▁잊을	-10.3126
이었음	-10.3126
룩	-10.3127
윈	-10.3127
▁스트레스	-10.3127
▁응원	-10.3128
▁훈훈한	-10.3129
▁다룬	-10.3136
보네	-10.3136
▁사랑이야기	-10.314
사람들이	-10.3142
▁무섭지도	-10.3146
▁1,2	-10.3155
▁깔끔	-10.316
▁완전히	-10.3163
었네요	-10.3163
▁그녀의	-10.3164
겠네요	-10.3168
▁견	-10.3169
▁괜찮은데	-10.317
▁오랜만	-10.3173
▁않을까	-10.3173
▁007	-10.3177
▁낚시	-10.318
시즌	-10.3182
▁대중	-10.3192
▁영화라는	-10.3193
▁승	-10.3195
▁들었다	-10.3198
▁어른들	-10.3202
▁색	-10.3204
▁드립니다	-10.321
▁홍콩영화	-10.3214
배우들의	-10.3219
▁많고	-10.3222
렬	-10.3223
감독의	-10.3225
▁블랙	-10.3225
롯	-10.3225
▁초등학교	-10.3225
긋	-10.3225
▁기다려	-10.3227
▁감흥	-10.3227
▁몇몇	-10.3228
▁필름	-10.3228
겠습니다	-10.3231
▁당연	-10.3238
▁재밌던데	-10.3239
▁a	-10.3255
▁한국영화는	-10.3259
겠음	-10.3259
되었	-10.3264
할만한	-10.3269
▁콩	-10.3274
▁하는거	-10.3277
얼굴	-10.3278
멍	-10.3279
▁모를	-10.3282
▁지루하기	-10.3286
더빙	-10.3287
▁도전	-10.3287
▁좋아하는데	-10.3289
▁간다	-10.3293
냐고	-10.3293
▁그거	-10.3293
▁개봉한	-10.3299
때부터	-10.3302
쟁	-10.3307
~!!!	-10.3309
▁밤	-10.3311
♥♥♥	-10.3321
륜	-10.3322
흡	-10.3322
씁쓸	-10.3323
▁DVD	-10.3324
▁봤을때	-10.3324
넹	-10.3324
▁뿐이다	-10.3331
▁ᄏᄏᄏᄏᄏᄏ	-10.3334
▁전개도	-10.3337
▁해결	-10.3341
▁희	-10.335
스크	-10.3351
▁재미와	-10.3351
왔습니다	-10.3358
뭔가	-10.3359
후반	-10.3362
것보다	-10.3365
▁잭	-10.3371
▁대해서	-10.3374
▁못함	-10.3376
배우가	-10.3379
밤	-10.3382
상황	-10.3397
그래서	-10.34
편에	-10.3406
▁21	-10.3417
▁먹고	-10.3417
▁있던	-10.3419
냉	-10.3424
칭	-10.3424
▁디테일	-10.3424
요소	-10.3426
상태	-10.3426
▁겨우	-10.3427
▁재미잇	-10.3427
▁비현실적	-10.3427
▁풍경	-10.343
▁빠진	-10.3437
올리	-10.3438
▁야동	-10.3445
다큐	-10.3448
▁신경	-10.3453
▁긴장감이	-10.3453
▁막판에	-10.3457
▁악마	-10.3458
공포영화	-10.3466
▁앞으로도	-10.3471
▁싶은데	-10.3472
야겠다	-10.3475
▁2014	-10.3485
20	-10.3487
보구	-10.3492
▁본영화	-10.3495
▁한마디	-10.3497
오늘	-10.35
하고싶은	-10.3503
브리	-10.3504
하지마	-10.3509
▁똑같은	-10.3515
▁커플	-10.3521
살아	-10.3523
물을	-10.3525
벅	-10.3525
마지막에	-10.3525
▁잠깐	-10.3526
▁어린시절	-10.3527
▁개뿔	-10.3528
▁잊을수	-10.3528
스럽고	-10.3534
▁변태	-10.3534
빨리	-10.3536
▁보았습니다	-10.354
▁죽이는	-10.354
▁잼있어요	-10.3542
출연	-10.3545
▁찬	-10.3545
▁애기	-10.3559
▁선생님	-10.3559
▁이럴	-10.3561
▁빵점	-10.3561
▁점수가	-10.3567
▁멍	-10.3571
▁자연스럽	-10.3578
똥	-10.3584
▁결론	-10.3584
▁학교	-10.3585
30	-10.3589
▁이용	-10.3589
쓸	-10.3591
▁보여줬	-10.3592
▁얼마	-10.3617
▁망치	-10.362
▁따로	-10.3621
▁추억이	-10.3625
빅	-10.3627
럭	-10.3627
폼	-10.3627
핑	-10.3627
▁왠만하면	-10.3627
매니아	-10.363
▁모두가	-10.3645
▁무술	-10.3646
▁졸리	-10.3652
▁답답한	-10.3653
▁왜이래	-10.3656
검	-10.3656
▁감히	-10.3656
나올때	-10.3656
하길	-10.3673
▁빈약	-10.3678
점줌	-10.3679
점이다	-10.3683
▁하나의	-10.3684
▁보내	-10.3688
▁조선	-10.3692
▁보여주고	-10.3698
▁쩝	-10.3698
아무	-10.3703
영화인데	-10.3707
▁맞아	-10.3716
사람들은	-10.3718
▁어릴	-10.3721
섹	-10.373
핀	-10.373
▁이제서야	-10.3731
▁국가	-10.3731
▁소중한	-10.3731
무서움	-10.3731
거같은데	-10.3732
▁기자	-10.3733
▁짜증난다	-10.3735
▁밑	-10.3738
▁짝이	-10.3742
억지	-10.3743
▁폴	-10.3743
▁줬	-10.3746
▁자주	-10.3754
았어요	-10.3756
▁떨	-10.3759
▁탑	-10.376
▁아픈	-10.3762
▁오락	-10.3762
▁보통	-10.3764
▁산만하	-10.3765
되나	-10.3767
▁실력	-10.3769
▁뜬금없	-10.3771
▁읽어	-10.3771
▁O	-10.3773
만에	-10.3774
것같아요	-10.3775
▁이때	-10.3775
▁한심한	-10.3778
▁생각함	-10.3796
▁영화보면서	-10.3801
년도에	-10.3802
빛	-10.3803
붙	-10.3806
▁심하게	-10.3808
▁보기에	-10.3808
▁비디오로	-10.3813
이걸	-10.3816
보고싶다	-10.3822
바닥	-10.3823
상실	-10.3826
H	-10.3835
납니다	-10.3836
▁말도안되는	-10.3837
주고싶	-10.3837
▁할머니	-10.3839
▁최초	-10.3843
▁깨닫게	-10.3846
▁결정	-10.385
▁속에서	-10.3851
▁소름이	-10.3852
랜드	-10.3855
▁검	-10.3856
▁재미없게	-10.3858
▁장르가	-10.3862
▁어쩔수	-10.3867
▁보지말	-10.387
▁돼	-10.3872
~~~~~~~~	-10.3873
▁몇년	-10.3879
▁정의	-10.3888
나오고	-10.3893
주연	-10.3899
▁웃기다	-10.3899
▁미쳤	-10.39
으니까	-10.3901
▁9985	-10.3907
▁죽는줄	-10.391
▁생각하면	-10.3913
큰	-10.3915
▁감동의	-10.3919
그만	-10.392
나왔	-10.3921
초반	-10.3924
관람	-10.3928
▁훈훈하	-10.3932
▁없어요	-10.3935
▁영화보는	-10.3936
랭	-10.394
깍	-10.394
▁시간가는줄	-10.394
씬이	-10.394
▁영원히	-10.3944
▁낮다	-10.3949
▁화려하	-10.395
▁본거	-10.3958
▁시리즈중	-10.3964
▁내면	-10.3972
▁감안	-10.3973
▁에이	-10.3982
▁세상을	-10.3987
▁만든영화	-10.3999
▁야구	-10.4
▁맹	-10.4001
▁명작입니다	-10.4006
▁어이	-10.4016
^^*	-10.4023
했다고	-10.4033
▁됨	-10.4045
셀	-10.4046
있냐	-10.4046
z	-10.4046
낯	-10.4046
▁스크린	-10.4046
필요	-10.4048
▁둘이	-10.405
▁참신한	-10.4053
같네	-10.4057
▁깎	-10.4059
▁욕망	-10.4063
▁있구나	-10.4065
▁못하다	-10.4065
▁보긴	-10.4065
거리는	-10.4069
▁작가님	-10.4079
▁관점	-10.4081
▁현실이	-10.4081
▁위로	-10.4089
울리	-10.4089
▁쓰는	-10.4099
▁헛	-10.4101
절대	-10.4106
▁다루	-10.4109
▁우리의	-10.4115
▁신비	-10.4119
▁전쟁영화	-10.4119
▁그렇지	-10.4124
▁않네요	-10.4124
▁조화	-10.4127
▁본방사수	-10.4128
부분이	-10.4135
▁재난영화	-10.4138
▁인해	-10.4141
짱짱	-10.4144
▁편견	-10.4145
▁느껴졌	-10.4146
놈이	-10.4146
▁위해서	-10.415
▁자신을	-10.4152
숭	-10.4154
앵	-10.4154
삐	-10.4154
▁안타까운	-10.4154
▁떨어진다	-10.4154
▁효과	-10.4157
▁특별한	-10.4158
었나	-10.4159
들어서	-10.4164
▁과장	-10.4167
▁남아있	-10.4169
장애	-10.4171
보여	-10.4171
▁방영	-10.4172
같아	-10.4182
둥	-10.4187
보이는	-10.419
학년	-10.4196
▁있는지	-10.4196
▁없습니다	-10.4197
민망	-10.4206
▁있었지만	-10.4207
버전	-10.4209
감정	-10.4214
▁조작	-10.4219
구리	-10.422
자리	-10.4221
▁형님	-10.4232
뭐야	-10.4233
브라	-10.4237
본영화	-10.4243
▁돌리	-10.4243
하하하	-10.4246
허접	-10.4247
▁관객을	-10.4248
▁웃고	-10.425
▁노래도	-10.4252
▁단편	-10.4254
▁지났	-10.4258
엑	-10.4262
곰	-10.4262
쿨	-10.4262
▁동성애	-10.4262
▁잔뜩	-10.4263
▁무엇인지	-10.4263
같지	-10.4264
▁여러가지	-10.4264
하겠다	-10.4267
▁다르다	-10.4269
▁우리는	-10.4276
▁여름	-10.4277
▁만들면	-10.4279
다니는	-10.4279
es	-10.428
베리	-10.4289
▁훌륭하다	-10.4289
▁색감	-10.4296
▁인디	-10.4296
좋음	-10.4297
▁재미있어	-10.4299
▁옥	-10.4302
▁그건	-10.4303
▁생각나서	-10.4304
▁이런영화를	-10.4306
▁최고였다	-10.4318
▁가치가	-10.4325
트리	-10.4326
▁충격적이	-10.4329
임에도	-10.4329
▁정도의	-10.4335
▁쿠	-10.4338
▁배우를	-10.4348
▁촌스럽	-10.4352
논	-10.4361
싸움	-10.4366
▁느꼈다	-10.4367
ᄎ	-10.4372
쿵	-10.4372
펜	-10.4372
ᅥ	-10.4372
▁아이디어	-10.4372
손가락	-10.4373
▁바꾸	-10.4376
끄러	-10.438
▁알겠는데	-10.4383
훈훈	-10.4383
▁이래서	-10.439
▁재미없었다	-10.439
▁60	-10.4392
▁대놓고	-10.4392
안됨	-10.4399
▁보지마라	-10.4403
▁명화	-10.4404
인물	-10.4406
모든	-10.4407
▁고마	-10.4411
▁기회	-10.4412
▁진부하	-10.4413
▁이것이	-10.4422
▁자신이	-10.4425
분은	-10.4425
th	-10.4425
▁불러	-10.4427
▁액션씬	-10.4427
▁캐릭터가	-10.4436
▁뭐하나	-10.4436
터짐	-10.4439
어린	-10.4445
▁쥐	-10.445
번은	-10.4457
건가요	-10.4461
현실을	-10.4467
모두	-10.4468
꽃	-10.4474
어떻게	-10.4477
공주	-10.4479
닿	-10.448
긴다	-10.4481
ᄏᄏᄏᄏᄏᄏᄏᄏᄏᄏ	-10.4483
▁블록버스터	-10.4483
싼	-10.4483
펑	-10.4483
▁수준의	-10.4485
▁마이	-10.4486
▁흑인	-10.4486
▁낚였다	-10.4489
생각이	-10.449
▁모험	-10.449
▁최근에	-10.4491
▁에로영화	-10.4497
때문	-10.4499
▁만들다니	-10.45
어디	-10.45
만듬	-10.4507
▁사진	-10.4507
▁부실	-10.451
▁부모님	-10.4516
▁비하면	-10.4527
▁엉성하고	-10.453
▁있었는데	-10.4535
오글	-10.4535
▁잔인	-10.4542
스럽게	-10.4551
오래	-10.4552
▁끈	-10.4553
▁개연성도	-10.4553
라곤	-10.4557
▁받는	-10.4557
▁영혼	-10.4566
쓰레기영화	-10.4567
▁안볼	-10.4568
받아서	-10.4576
이즈	-10.4596
닉	-10.4596
▁소소한	-10.4596
▁아쉬워	-10.4596
▁후속작	-10.4596
▁색다른	-10.4597
▁sf	-10.4599
▁그저그런	-10.46
▁어쩜	-10.46
▁탄탄	-10.4606
▁단어	-10.4606
대단	-10.4608
▁영상이	-10.4608
본사람	-10.4609
▁낙	-10.4617
▁재미있습니다	-10.462
조금	-10.462
▁모르겠음	-10.4621
해준다	-10.4621
▁살아가는	-10.4623
좋겠	-10.4633
보임	-10.4657
신분	-10.4661
했지	-10.4662
▁옷	-10.4662
▁예쁘고	-10.4666
거같아요	-10.468
▁멋지	-10.4684
▁죽이고	-10.4701
어이없	-10.4701
픽	-10.4706
엽	-10.4707
콤	-10.4708
▁됩니다	-10.4709
▁아닙니다	-10.4709
▁짜임새	-10.4709
▁거짓말	-10.4709
▁아예	-10.471
덜	-10.471
▁아내	-10.4715
▁억지스러운	-10.4716
▁최고임	-10.4716
▁감각	-10.4716
▁또다른	-10.472
▁비밀	-10.4722
▁하나같이	-10.4725
▁배역	-10.473
▁기대이상	-10.4731
▁여운을	-10.4733
▁잘봤어요	-10.4735
때까지	-10.4736
as	-10.4742
▁그당시	-10.4745
▁잼나게	-10.4745
▁듣고	-10.4754
▁녹	-10.4756
▁기대했	-10.4766
▁형사	-10.477
▁매력을	-10.4775
긴하지만	-10.4775
아까운	-10.4788
▁죽인	-10.4789
▁노래가	-10.479
▁사랑스럽	-10.4795
▁뛰어나	-10.4799
▁식상한	-10.4801
▁가족영화	-10.4808
옴	-10.4818
▁낮아	-10.4823
▁다운받아	-10.4823
삭	-10.4824
챙	-10.4824
뽀	-10.4824
찔	-10.4824
▁울컥	-10.4825
▁제임스	-10.4825
▁감정이입	-10.4826
찡	-10.4829
솔직히	-10.483
▁p	-10.4831
▁가슴을	-10.4831
▁하늘	-10.4832
햇다	-10.4833
필요없	-10.4839
▁오래된	-10.4841
▁술	-10.4843
▁열연	-10.4845
▁분위기가	-10.4845
▁구성이	-10.4847
보니까	-10.4848
▁먼가	-10.485
레스	-10.4851
혹은	-10.4855
▁집중해서	-10.4855
때매	-10.4857
리즈	-10.4858
▁애들은	-10.4859
큐	-10.4859
▁집에	-10.4868
점이상	-10.4871
▁기준	-10.4881
덕에	-10.4884
▁풍자	-10.4888
았지만	-10.4889
주고싶다	-10.489
▁분들은	-10.4894
▁대본	-10.4894
▁갖고	-10.4902
▁공포물	-10.4912
여주	-10.492
시오	-10.492
왓	-10.4922
▁봤네	-10.4926
했다면	-10.4932
개그	-10.4936
▁문제가	-10.4938
곧	-10.4941
었을	-10.4941
같아서	-10.4941
▁극장가서	-10.4943
▁주기도	-10.4944
▁의미가	-10.4947
▁지나도	-10.4947
▁흔들	-10.4947
낚	-10.4947
▁가정	-10.4949
▁등등	-10.4949
▁적당히	-10.4952
커플	-10.4955
▁도망	-10.4959
▁길게	-10.4964
▁변화	-10.4968
▁선동	-10.4969
▁막장드라마	-10.4972
▁별로임	-10.4973
▁결말을	-10.4981
▁연출과	-10.4981
거든	-10.4983
재미없음	-10.4986
▁내용인지	-10.4989
▁출연한	-10.4992
▁남자들	-10.4993
▁답답하고	-10.4995
떨어지	-10.4997
하진	-10.4999
▁반전은	-10.5004
▁정말이지	-10.5007
년작	-10.5015
지루함	-10.5016
▁싸우는	-10.502
▁많은데	-10.5027
사건	-10.5047
▁봅니다	-10.5057
장르	-10.5058
특별	-10.5058
퀴	-10.5058
▁살다살다	-10.5058
곱	-10.5058
딜	-10.5058
얄	-10.5058
보셈	-10.506
▁잔혹	-10.506
받아	-10.5062
▁아무런	-10.5063
▁데리고	-10.5065
뇌	-10.5066
▁남자주인공	-10.5068
▁마지막장면	-10.5071
도대체	-10.5073
▁싸움	-10.5076
▁끝날	-10.5077
▁성격	-10.5079
▁빼면	-10.5082
이었습니다	-10.5083
있습니다	-10.5085
▁만남	-10.509
▁남은	-10.5091
기전에	-10.5093
▁아니야	-10.5096
▁조카	-10.5096
ᅲᅲᅲᅲᅲ	-10.5098
▁여러분	-10.5112
▁아래	-10.5122
▁내가본	-10.5127
▁좋겠	-10.513
▁전문	-10.5147
▁깔	-10.5154
▁ᄌ	-10.5158
아닌가	-10.5162
▁사고	-10.517
점대는	-10.5173
▁볼수있는	-10.5174
스카	-10.5176
▁즐거웠	-10.5177
▁특수효과	-10.5177
뜬	-10.5177
▁로버트	-10.5177
컴	-10.5177
▁탄생	-10.5178
▁충실	-10.518
두고	-10.5182
▁결코	-10.5182
▁만들었는지	-10.5189
L	-10.5195
벗	-10.5195
이름	-10.5197
▁연극	-10.5197
아저씨	-10.5197
▁살면서	-10.5205
▁조절	-10.5209
▁열받	-10.5212
후회	-10.5224
였으면	-10.5228
▁이해할수	-10.5228
▁잼잇	-10.523
▁감정이	-10.5234
▁안습	-10.5236
▁엉성하	-10.5248
▁가르	-10.5253
▁헬	-10.5261
든지	-10.5261
▁두고	-10.5261
해주고	-10.5264
것같은	-10.5266
▁보기에는	-10.5267
싶다	-10.5268
부분은	-10.5271
겠죠	-10.5273
▁L	-10.528
닮	-10.5281
재밌어	-10.5285
▁꽤나	-10.529
렵	-10.5293
▁추리	-10.5295
측	-10.5296
했을때	-10.5297
U	-10.5298
쪼	-10.5298
★	-10.5298
▁아류작	-10.5298
▁교과서	-10.5298
▁다양한	-10.5298
▁핵노잼	-10.5299
▁니콜	-10.53
le	-10.5301
▁높게	-10.5301
▁안맞는	-10.5303
받았	-10.5308
만드네	-10.5311
▁찾아보	-10.5313
▁좋겠네요	-10.5313
▁남네요	-10.5317
▁10273	-10.532
비디오	-10.532
헐	-10.532
▁재미도없고	-10.5323
▁소장	-10.5325
▁그자체	-10.5325
앞에서	-10.5327
해야할	-10.5338
▁한국에서	-10.5351
▁원작에	-10.5363
여행	-10.5372
▁승리	-10.5378
▁생긴	-10.5378
▁낮게	-10.5383
없네요	-10.5384
▁거기에	-10.5384
▁보려	-10.5384
자신	-10.5399
▁샘	-10.5399
▁뭘까	-10.5401
▁뭐니	-10.5408
객	-10.5413
거같음	-10.5413
▁캬	-10.5417
팍	-10.542
▁일깨워	-10.542
쯔	-10.542
▁플롯	-10.542
▁바랍니다	-10.5422
▁코미디영화	-10.5422
▁놀라운	-10.5427
▁담배	-10.543
거죠	-10.5433
삶	-10.5434
▁방식	-10.5437
앤	-10.5446
▁아쉽지만	-10.545
▁운명	-10.5452
좋았다	-10.5454
▁생각했는데	-10.5457
▁놀랍다	-10.5467
할것	-10.5467
▁확인	-10.5468
▁아까웠다	-10.5468
▁맞지	-10.547
▁잘만들었	-10.547
쓰는	-10.5471
구석	-10.5472
▁만들수	-10.5472
▁낮지	-10.5474
▁까지	-10.5475
▁책을	-10.548
▁알수있	-10.5486
▁살린	-10.549
▁9986	-10.549
좋은영화	-10.5497
▁못보겠	-10.55
▁편안	-10.5505
우스	-10.5506
▁요리	-10.5507
될듯	-10.5507
▁그만큼	-10.5518
▁망친	-10.5521
▁이상하게	-10.553
마냥	-10.5534
지마세요	-10.5539
풋풋	-10.5542
갱	-10.5543
▁가벼운	-10.5543
▁임팩트	-10.5543
▁주윤발	-10.5543
▁사운드	-10.5543
▁앞뒤	-10.5545
▁여자친구	-10.555
▁마지막까지	-10.5554
▁여자주인공	-10.5555
옆	-10.556
▁따분	-10.5565
▁으리	-10.5566
긴장감	-10.5571
▁손발	-10.5571
관객	-10.5573
흠	-10.5575
것만으로도	-10.5576
▁궁금하다	-10.5576
려다가	-10.5578
▁좀비영화	-10.5587
▁그립다	-10.5592
▁소설을	-10.5594
혼자	-10.5595
▁약간의	-10.56
되었다	-10.5603
▁넘게	-10.5606
▁교훈을	-10.5607
▁포스터가	-10.5614
▁떨어지고	-10.5617
▁아까웠	-10.5619
▁새로	-10.5632
▁불쌍하다	-10.5634
▁손에	-10.5643
▁짜증만	-10.5645
▁멋졌	-10.5646
섭	-10.5658
부러	-10.5665
▁볼때	-10.5667
찮	-10.5667
▁아까운영화	-10.5668
뭉	-10.5668
뭣	-10.5668
▁봤을까	-10.5668
벼	-10.5668
▁러시아	-10.5668
▁스티븐	-10.5668
싹	-10.5668
▁장국영	-10.5668
찐	-10.5668
▁이따구	-10.5668
▁유일한	-10.5669
▁짧은	-10.5671
▁폐지	-10.5673
▁첫사랑	-10.5674
▁다시보니	-10.5681
▁몰랐다	-10.5682
▁있다니	-10.5685
▁한숨	-10.5685
▁순수함	-10.5692
▁아름답게	-10.5694
▁주제를	-10.5694
▁만든거	-10.5695
촌	-10.5698
뿐이다	-10.5699
▁강렬한	-10.5708
▁안본	-10.571
▁자체는	-10.5711
▁않아서	-10.5714
▁호구	-10.5715
▁어설프고	-10.5717
▁여전	-10.5724
▁넌	-10.5725
▁매력적	-10.5735
▁연기력은	-10.5736
▁매일	-10.5739
같은영화	-10.5743
줄알	-10.5746
둥이	-10.5756
라는걸	-10.5764
치고는	-10.5766
잖	-10.5775
▁ᄍᄍᄍ	-10.5775
▁W	-10.5778
▁여주가	-10.5779
▁대단하	-10.5781
▁아름답	-10.5788
모자	-10.5789
괜	-10.5794
▁해리포터	-10.5795
랩	-10.5795
J	-10.5795
▁심형래	-10.5795
▁짜집기	-10.5795
▁끔찍	-10.5795
▁집착	-10.5796
▁반대	-10.5797
▁모른다	-10.5799
▁예쁘다	-10.5799
▁당연히	-10.5803
▁사상	-10.5804
▁그야말로	-10.5804
▁어느정도	-10.5805
▁어렵다	-10.5809
▁이딴걸	-10.5816
▁무료	-10.5816
법한	-10.5818
▁10272	-10.582
▁개인적	-10.5822
보는게	-10.5826
아빠	-10.5826
못해	-10.5828
당시	-10.5829
▁보던	-10.583
화이팅	-10.5837
▁내용과	-10.5838
▁답이	-10.5841
▁등장인물	-10.5842
▁많은걸	-10.5842
졸작	-10.5847
ᄏᄏᄏᄏᄏᄏᄏᄏᄏᄏᄏᄏ	-10.5847
▁한편의	-10.5854
▁생각할	-10.5854
il	-10.5858
▁주인공은	-10.5863
▁선물	-10.5863
▁시리즈는	-10.5865
떨	-10.5875
▁난해하	-10.5883
▁잡아	-10.5884
른다	-10.5894
▁자리	-10.5902
▁줄수	-10.5903
▁포스	-10.591
쩜	-10.5918
즐겁	-10.5922
▁반드시	-10.5923
▁유일하게	-10.5923
▁내생에	-10.5924
월드	-10.5929
▁목적	-10.5929
▁로코	-10.5932
▁당신은	-10.5934
▁공감할	-10.5936
▁엉망이	-10.5936
▁첨엔	-10.5937
보게되	-10.5937
▁나름대로	-10.5937
▁하나로	-10.5939
▁시간아깝다	-10.594
▁말하고자	-10.594
▁케이블에서	-10.5946
▁처음에는	-10.5948
▁영상과	-10.5951
▁애매	-10.5951
▁어설프	-10.5951
▁명장면	-10.5955
▁욕심	-10.5957
▁괜찮음	-10.5968
▁모든걸	-10.597
포스터	-10.5971
▁짜증나서	-10.5974
않다	-10.598
▁소재도	-10.5984
▁수작이다	-10.5989
▁재미없어서	-10.5992
▁배신	-10.5996
▁9305	-10.6001
또한	-10.6004
▁수입	-10.6011
▁9855	-10.6019
▁부분도	-10.6023
▁어른이	-10.6029
▁봤어	-10.6039
▁불편한	-10.604
▁저급	-10.6047
ᄁ	-10.6053
^-^	-10.6053
▁you	-10.6053
▁쓸데없이	-10.6053
▁제니퍼	-10.6053
▁인내심	-10.6053
▁이소룡	-10.6053
▁이끌어	-10.6053
▁of	-10.6053
갠적으로	-10.6055
▁흐르는	-10.6055
▁짜증이	-10.6056
▁잤다	-10.6056
▁웃으면서	-10.6059
▁근래	-10.6062
▁일부러	-10.6062
적이지	-10.6069
웨이	-10.6072
▁울리는	-10.6076
▁나에겐	-10.6077
▁바다	-10.6079
▁수많은	-10.6081
▁따뜻하고	-10.6084
▁강한	-10.6085
먹은	-10.6091
ᅮᅲ	-10.6093
▁돋보이는	-10.6095
▁친구가	-10.6097
▁어울리는	-10.61
듯하다	-10.6103
▁이런건	-10.6103
약한	-10.6104
걍	-10.6105
맹	-10.6108
추억	-10.6109
웃김	-10.6112
▁인상적	-10.6115
▁시청률이	-10.6116
!!!!!!!!!!!!!!!!	-10.6119
▁재밌어서	-10.6121
▁삶이	-10.6122
▁때려	-10.6123
▁정작	-10.6124
▁나랑	-10.6134
▁생각으로	-10.6137
지말자	-10.6143
멜로	-10.6149
▁아쉬움이	-10.6169
▁괜찮았다	-10.6176
▁음식	-10.6177
본영화중	-10.6181
닫	-10.6184
▁배트맨	-10.6185
▁뱀파이어	-10.6185
▁할리우드	-10.6185
땀	-10.6185
펙	-10.6185
▁제이슨	-10.6185
▁아닐	-10.6185
▁역사를	-10.619
▁끼워	-10.6191
▁태어나서	-10.6192
▁두번째	-10.6194
▁추격	-10.6197
▁담겨	-10.6198
▁감동받	-10.6205
보시길	-10.6209
▁보다니	-10.6211
▁피해	-10.6211
▁독일	-10.6217
역사	-10.6218
지않아	-10.6219
▁동심	-10.622
높은	-10.6224
▁가수	-10.6225
하군	-10.6225
▁봐야하는	-10.6233
▁철학적	-10.6237
▁이해를	-10.6249
▁싶어요	-10.6249
스토	-10.6251
▁9856	-10.6256
▁연기자	-10.6258
▁타고	-10.626
하는건지	-10.6261
▁초딩때	-10.6269
▁상대	-10.6277
▁ᄏᄏᄏᄏᄏᄏᄏᄏ	-10.6285
깝	-10.6287
▁밀려	-10.6295
▁하아	-10.631
딘	-10.6318
▁dvd	-10.6318
및	-10.6318
▁설득력	-10.6318
깃	-10.6318
램	-10.6318
▁늑대	-10.6318
▁심지어	-10.6319
▁착각	-10.632
▁위험	-10.6321
▁할아버지	-10.6322
▁배경음악	-10.6322
방식	-10.6324
▁언제봐도	-10.6325
▁어째	-10.6327
▁아깝고	-10.6328
▁개노잼	-10.6342
보긴	-10.6348
어색	-10.6357
것처럼	-10.6358
▁기억나는	-10.6359
었지	-10.6359
싫어	-10.636
-_-;	-10.6363
엇는데	-10.6364
재미있게	-10.6364
▁없었음	-10.637
▁안간다	-10.6378
썼	-10.638
느끼	-10.6383
▁후에	-10.6405
▁좋네	-10.6408
말아먹	-10.6416
씀	-10.6418
빠져	-10.6429
▁진수	-10.644
할뿐	-10.6447
기도하고	-10.6449
뎅	-10.6453
짤	-10.6453
쫓	-10.6453
▁고등학교	-10.6453
▁조니뎁	-10.6453
탱	-10.6453
퓨	-10.6453
▁숨겨진	-10.6453
▁홍상수	-10.6453
부끄럽	-10.6453
▁빵빵	-10.6454
▁뭐하자는	-10.6454
▁맞춰	-10.6456
받을	-10.6459
▁오락영화	-10.6459
▁10274	-10.6465
▁디워	-10.6466
▁점수는	-10.6466
▁잘못된	-10.6468
▁잠이	-10.6469
▁동양	-10.6473
하러	-10.6473
▁혹시나	-10.6476
▁현실과	-10.6479
미국	-10.6486
▁난잡	-10.6493
▁새벽에	-10.6493
▁클레멘타인	-10.6504
▁지겹다	-10.6506
▁잼있음	-10.6511
▁연인	-10.6511
일듯	-10.6516
▁2000	-10.6524
느껴	-10.6525
곳에서	-10.6533
▁이상하고	-10.6537
톤	-10.6539
▁아이들과	-10.6545
언제	-10.6549
▁마음으로	-10.656
▁재미있을	-10.6566
▁희망을	-10.6576
▁거장	-10.6582
젊	-10.6588
ᄡ	-10.659
젖	-10.659
▁이뻐서	-10.659
▁익숙	-10.659
▁영환데	-10.6591
♥♥♥♥	-10.6593
▁여러번	-10.6596
▁처절	-10.6596
보여주	-10.6603
안쓰	-10.6606
▁봐도봐도	-10.6612
▁최고봉	-10.6613
달아	-10.6619
▁책임	-10.6619
▁많아서	-10.6622
에대해	-10.6624
맞는	-10.6628
▁만들기	-10.6634
▁우연	-10.664
▁이런영화는	-10.6643
▁보이지	-10.6654
조아	-10.6656
▁어색하고	-10.6661
분들은	-10.6662
춤	-10.6664
▁제목만	-10.6665
목소리	-10.6667
놨네	-10.6671
▁발상	-10.6685
▁사용	-10.6686
져요	-10.6688
보소	-10.6698
▁없으면	-10.6708
▁삼류영화	-10.6713
못하는	-10.6714
조연	-10.6715
하니까	-10.6716
뢰	-10.6729
맴	-10.6729
셋	-10.6729
숀	-10.6729
▁움직이	-10.6729
넬	-10.6729
▁사투리	-10.6729
▁즐겨	-10.6729
▁쉽지	-10.6731
▁실화를	-10.6733
분만에	-10.6741
▁짜증남	-10.6744
▁마약	-10.6749
▁to	-10.6751
▁하지원	-10.6759
▁힘내	-10.6771
▁없나요	-10.6771
겨운	-10.6773
▁유치해	-10.6778
티가	-10.6805
!!!!!!!!!	-10.6808
시나리오	-10.6808
분위기	-10.6811
웃겨	-10.6821
하시길	-10.6823
▁불쌍한	-10.6824
류영화	-10.6829
▁부부	-10.6831
▁죽었	-10.6833
었는지	-10.6842
▁생기	-10.6853
바라	-10.6855
▁실수	-10.6858
랍	-10.6867
납	-10.6868
랙	-10.687
닷	-10.687
▁네티즌	-10.687
▁대통령	-10.687
눌	-10.687
밴	-10.687
▁아놀드	-10.687
▁박진감	-10.687
▁떨어짐	-10.687
▁오글거려	-10.687
▁잃어	-10.6873
▁빠른	-10.6874
▁재개봉	-10.6874
▁판단	-10.6878
▁봤다면	-10.6881
lo	-10.6884
▁괜찮았는데	-10.6886
여운이	-10.689
▁높아서	-10.6902
▁않으	-10.6918
수밖에	-10.6924
▁불쌍해	-10.6931
▁멋지고	-10.6935
▁재미없을	-10.6942
▁세상이	-10.6944
▁중심	-10.6948
▁달려	-10.6952
꿈	-10.6954
아버지	-10.6955
▁남았	-10.6955
캐스팅	-10.6957
엄청	-10.6959
있으면	-10.6983
▁알겠다	-10.6984
▁작품입니다	-10.6986
▁안봐도	-10.6989
▁혹시	-10.699
놀이	-10.6997
▁의사	-10.6998
낭	-10.7005
▁주연배우	-10.7007
툭	-10.7013
▁소중함을	-10.7013
▁컴퓨터	-10.7013
앨	-10.7013
▁이토록	-10.7013
▁뭥미	-10.7013
▁도무지	-10.7013
▁허술한	-10.7018
▁과학	-10.7019
▁폭발	-10.702
▁정상	-10.7021
▁다운받	-10.7021
▁상영관	-10.7022
▁다섯	-10.7024
▁내용전개	-10.7027
줄알았는데	-10.7027
▁단순히	-10.7028
▁반담	-10.7034
표정	-10.7036
굿굿굿	-10.704
으려고	-10.7041
▁표현할	-10.7049
▁정신병자	-10.7051
하거나	-10.7051
▁짜증나고	-10.7055
▁어디에	-10.706
있어요	-10.7061
▁정보	-10.7065
있었다	-10.7073
▁말자	-10.7074
▁그동안	-10.7075
▁그것도	-10.7079
모르고	-10.7084
▁쩔어	-10.7085
▁2012	-10.7094
갔는데	-10.7095
불쌍	-10.7104
CG	-10.7107
평론가	-10.7108
▁김치	-10.7115
였나	-10.7115
▁볼만했다	-10.7116
▁없냐	-10.7123
갈때	-10.7124
▁없게	-10.7125
al	-10.7126
극장에서	-10.7138
▁가족들	-10.7145
해지고	-10.7147
▁오랫만에	-10.7157
▁왤케	-10.7157
뻥	-10.7157
켰	-10.7157
▁명불허전	-10.7157
▁케릭터	-10.7157
웟	-10.7157
▁쓸데없는	-10.7158
닼	-10.7158
덩어리	-10.7158
▁박수	-10.7158
▁그지같	-10.7161
▁실험	-10.7161
올라	-10.7163
▁루즈	-10.7163
스럽지	-10.7165
▁믿고보는	-10.7165
▁대신	-10.7167
▁부럽	-10.7176
잖아요	-10.7177
나왓	-10.718
▁유쾌하게	-10.7183
▁어거지	-10.7187
햇는데	-10.7193
▁10247	-10.7201
▁모르겠네요	-10.7204
▁기대없이	-10.7212
글자	-10.7214
▁현실감	-10.7219
▁보고싶어	-10.7225
▁잊고	-10.7227
곳이	-10.7229
ᄍ	-10.7244
▁대학	-10.7246
존나	-10.7249
▁생명	-10.7252
▁세번	-10.7262
▁빛을	-10.7287
▁정신없	-10.7292
소름	-10.7295
뷰	-10.7303
첩	-10.7304
뚝	-10.7305
▁우뢰매	-10.7305
▁나레이션	-10.7305
▁송강호	-10.7305
▁유덕화	-10.7305
셜	-10.7305
썰	-10.7305
▁흑백	-10.7305
▁희대의	-10.7305
▁걱정	-10.7305
▁달콤	-10.7306
▁폭풍	-10.7306
▁명대사	-10.7308
▁장난하냐	-10.731
▁적어도	-10.7312
▁사라지	-10.7312
▁돈내고	-10.7313
알아	-10.7317
▁보게된	-10.7321
발연기	-10.7326
▁10003	-10.7328
▁인형	-10.7333
뻔했다	-10.7335
▁유행	-10.7337
차별	-10.7341
▁잔잔하게	-10.7344
▁사랑해요	-10.7344
▁본건데	-10.7354
▁여자애	-10.7357
▁않았지만	-10.7358
빼	-10.7361
▁다르게	-10.7364
▁아깝네	-10.7369
▁아니었다	-10.737
었을까	-10.7379
▁매미	-10.7381
▁불안	-10.7387
▁소화	-10.7396
탑	-10.7411
칼	-10.7411
코믹	-10.7411
▁귀엽다	-10.7414
만큼이나	-10.7419
▁의상	-10.7421
▁남긴	-10.7427
없나	-10.7431
꼈	-10.7453
덩	-10.7454
멈	-10.7454
▁짐캐리	-10.7454
곽	-10.7454
옳	-10.7454
켄	-10.7454
▁내생애	-10.7454
▁하정우	-10.7454
▁최소	-10.7454
▁무엇인가	-10.7455
▁평균	-10.7457
▁한방	-10.7459
▁만화책	-10.746
▁압도	-10.746
▁이루어	-10.7461
보고있어요	-10.7461
왔어요	-10.7461
▁환경	-10.7464
굳굳	-10.7467
▁거북	-10.7469
▁거품	-10.747
▁눈물나	-10.7472
am	-10.7476
▁재능	-10.7476
▁하품	-10.7476
분동안	-10.7477
▁보았는데	-10.7483
▁궁금해서	-10.7483
▁그럴듯	-10.7486
▁10005	-10.7496
▁원조	-10.7497
▁아깝네요	-10.7509
빠진	-10.7522
▁싸우	-10.7533
▁좋을듯	-10.7534
상영	-10.7543
▁가득한	-10.7554
▁사랑한다	-10.7554
▁포스터만	-10.7558
▁강렬	-10.7562
여운	-10.7565
늙	-10.7569
볼수있	-10.7581
줬으면	-10.759
할줄	-10.759
재미있어요	-10.7593
▁갖다	-10.7595
앞으로	-10.7595
▁장난치	-10.7595
▁믿기지	-10.76
윌	-10.7605
빗	-10.7605
읍	-10.7605
▁인터넷	-10.7605
걷	-10.7605
릇	-10.7605
▁공짜로	-10.7605
▁명복을	-10.7605
▁양아치	-10.7605
▁정우성	-10.7606
▁첩보	-10.7606
▁이런류의	-10.7607
▁꿈꾸	-10.7607
▁민폐	-10.7608
▁축구	-10.7608
▁역량	-10.7609
쩐다	-10.761
▁은근히	-10.7611
▁극복	-10.7613
▁파괴	-10.7616
▁10271	-10.7621
제대로	-10.7621
▁10024	-10.7622
▁무겁	-10.7625
▁한개도	-10.7626
▁살인마	-10.7628
▁탄탄하고	-10.763
▁10182	-10.763
▁사람이라면	-10.7631
▁추천하고	-10.7637
▁평화	-10.7649
▁따뜻해	-10.7655
보고싶어요	-10.7657
뭐냐	-10.7658
▁서울	-10.766
외로	-10.7661
▁공간	-10.7662
간만에	-10.7668
▁왜곡	-10.7668
▁녹아	-10.7671
▁결론은	-10.7675
▁기타	-10.7676
,,,,,,	-10.7678
드립	-10.7679
▁만들어서	-10.768
점주기도	-10.7691
▁명연기	-10.7697
델	-10.7699
▁재미있는데	-10.77
▁담은	-10.7701
멜	-10.7705
▁초반부	-10.7708
▁황당한	-10.7719
▁정도면	-10.7721
비슷	-10.7726
므	-10.773
바람	-10.7736
▁알았네	-10.774
▁안될	-10.7748
하지말고	-10.7748
앉	-10.7752
행복	-10.7755
▁전개와	-10.7759
▁듭니다	-10.7759
▁스포츠	-10.7759
▁아무생각없이	-10.7759
▁잘생겼	-10.7759
똘	-10.7759
▁오프닝	-10.7759
보느니	-10.776
▁상관없	-10.776
스텝	-10.7762
▁케빈	-10.7763
▁액션신	-10.7765
▁이것보단	-10.7765
▁끌고	-10.7766
▁긴박	-10.7767
ch	-10.777
▁무섭고	-10.7771
▁만약	-10.7771
▁만들어낸	-10.7775
▁유럽	-10.7783
▁놓치	-10.7785
▁서양	-10.7785
▁10004	-10.7786
시키지	-10.7788
▁10246	-10.7794
▁평소	-10.7796
▁생각난다	-10.7797
힘들	-10.781
스틱	-10.781
▁마지막회	-10.7818
▁한국판	-10.7819
사실	-10.7823
▁만난	-10.7826
▁100%	-10.7837
▁잔잔하면서	-10.7846
있던	-10.7848
아이들	-10.7849
▁화나	-10.7856
찾아	-10.7858
▁등장인물들	-10.7859
작이라	-10.786
▁보시면	-10.7871
셔야	-10.7871
▁넣어	-10.7871
▁부정	-10.7882
왠	-10.7891
▁명배우	-10.7894
그럼	-10.7895
▁벌어	-10.7897
노답	-10.7903
그랬	-10.7904
껀	-10.7915
셉	-10.7915
인상깊었	-10.7915
▁가까운	-10.7915
홈	-10.7915
▁전반적으로	-10.7915
▁컨셉	-10.7915
▁깡패	-10.7915
▁리얼리티	-10.7915
▁이해불가	-10.7916
▁누군지	-10.7916
▁역겨운	-10.7917
▁고뇌	-10.7918
▁좋았을텐데	-10.7918
▁왠만한	-10.7919
아무리	-10.7923
▁부탁	-10.7926
▁볼만합니다	-10.7934
▁적당한	-10.7934
▁10270	-10.7941
▁기존	-10.7941
▁안보는게	-10.7943
▁스토리전개	-10.7948
el	-10.7949
▁찍고	-10.7952
▁시작부터	-10.7952
돈아깝	-10.7957
재미없어	-10.7962
▁사람들에게	-10.797
스톤	-10.7974
▁못보겠다	-10.7978
▁반영	-10.7981
▁유치해서	-10.7982
맞고	-10.7986
미친	-10.7987
▁싶었다	-10.7988
▁찍는	-10.7991
▁논리	-10.8001
꺼면	-10.8001
쁜	-10.8007
▁어울리지	-10.801
▁놀랍	-10.8014
하나하나가	-10.8017
겐	-10.8019
게만드는	-10.8025
굳	-10.8027
열자	-10.8035
▁허무한	-10.8038
소재와	-10.8039
선수	-10.804
뭘	-10.8052
개인적으로	-10.8052
아직도	-10.8053
범죄	-10.8054
폴	-10.8055
너무너무	-10.8057
▁읽고	-10.8057
봣다	-10.806
스턴	-10.806
▁그립	-10.8061
▁답답함	-10.8065
답게	-10.8071
덴	-10.8074
▁빕니다	-10.8074
▁웰메이드	-10.8074
몫	-10.8074
미스테리	-10.8074
▁자동차	-10.8074
▁제시카	-10.8074
▁우려먹	-10.8074
▁즐길	-10.8074
▁동시에	-10.8075
▁블랙코미디	-10.8075
나쁜	-10.8076
▁풋풋한	-10.8076
▁각색	-10.8079
im	-10.8082
답니다	-10.8084
습니까	-10.8086
것같은데	-10.8087
▁천국	-10.8093
▁여친	-10.8093
▁담긴	-10.8099
▁괜찮았음	-10.81
▁친구랑	-10.8106
쩌네	-10.8107
아까워	-10.811
않음	-10.8111
▁울면서	-10.8111
▁10250	-10.8112
▁만들었나	-10.8115
▁마니	-10.8116
보신분들	-10.812
▁알았음	-10.8125
되요	-10.8127
▁영원한	-10.8128
▁강간	-10.813
있지만	-10.8133
▁재난	-10.8135
▁실감	-10.8139
▁사랑합니다	-10.814
▁별하나	-10.814
▁절정	-10.814
없구	-10.8141
▁자극적인	-10.8163
▁벗어나	-10.8165
▁잘만들었다	-10.8183
->	-10.8184
▁지겹	-10.8194
▁10018	-10.8225
선택	-10.8229
퀄	-10.8235
닭	-10.8235
뱀	-10.8235
쩍	-10.8235
▁빨갱이	-10.8235
▁적절한	-10.8236
▁배급사	-10.8236
▁쓸쓸	-10.8236
▁헛웃음	-10.8236
▁죄송	-10.8237
▁빛나는	-10.824
▁극단적	-10.824
▁장애인	-10.8241
▁상징	-10.8243
특집	-10.8243
▁향수	-10.8245
였네요	-10.8253
▁첨부터	-10.8261
▁싶었던	-10.8264
▁재미있었음	-10.8265
ic	-10.8269
▁치유	-10.8271
▁10252	-10.8273
하자면	-10.8276
▁나오는데	-10.8279
지못한	-10.8281
그러나	-10.8288
좋네요	-10.8296
▁기대이하	-10.8299
▁드네요	-10.8309
▁잠시	-10.831
지루하고	-10.8311
▁예술영화	-10.8311
안된다	-10.8317
▁진지한	-10.8318
90	-10.8325
▁밤에	-10.8326
시간동안	-10.8329
▁않은데	-10.8332
▁쩌는	-10.8332
▁뜬금없는	-10.8335
▁아프다	-10.8336
소녀	-10.8336
sh	-10.8349
갖	-10.8374
▁보기싫	-10.8377
볼까	-10.8382
코메디	-10.8387
귀엽	-10.8388
TV	-10.839
▁김정	-10.8393
▁안본다	-10.8394
낄	-10.8398
젼	-10.8399
퉁	-10.8399
룰	-10.8399
ᅢ	-10.8399
▁류승범	-10.8399
쟈	-10.8399
▁이병헌	-10.8399
욤	-10.8399
▁어두운	-10.8399
▁드디어	-10.8399
▁호기심	-10.8399
▁혐오	-10.84
▁불가능	-10.84
▁흥미로웠	-10.84
같아요	-10.8401
▁센스	-10.8403
un	-10.8404
▁로빈	-10.8405
▁거기다	-10.8406
▁앉아	-10.8407
▁담담	-10.8409
▁전화	-10.8409
아아아	-10.841
▁전체적인	-10.841
▁개똥	-10.8411
▁만들었을까	-10.8412
▁고독	-10.8412
▁억지감동	-10.8413
▁아만다	-10.8415
▁떨어져	-10.8415
자마자	-10.8416
므로	-10.843
것같네요	-10.8437
▁재밌었던	-10.8439
▁최소한	-10.844
▁기적	-10.8453
보네요	-10.8454
귀신	-10.8458
▁고어	-10.8463
당시엔	-10.8464
꺼야	-10.8465
▁책으로	-10.8476
▁끝나서	-10.8484
▁찾아서	-10.8509
해줘서	-10.851
▁깔끔한	-10.851
▁부족함	-10.8513
▁무섭지	-10.8515
▁괜찮게	-10.8527
▁인상적인	-10.8527
▁정신병	-10.8532
순위	-10.8537
▁옆에	-10.8544
도좋고	-10.8549
그렇게	-10.856
씁	-10.8566
▁EBS	-10.8566
▁놀랐다	-10.8566
랴	-10.8566
헉	-10.8566
쉐	-10.8566
▁박중훈	-10.8566
▁박보영	-10.8566
▁베드신	-10.8566
▁하이틴	-10.8566
▁삭제	-10.8566
▁낭만	-10.8568
▁모르지만	-10.8568
▁라스트	-10.8572
▁배꼽	-10.8573
▁깨알	-10.8573
▁그림체	-10.8574
ed	-10.8576
▁절망	-10.8578
▁개콘	-10.8579
▁말하려는	-10.8586
하실	-10.8586
ve	-10.8596
▁보았던	-10.8598
▁백인	-10.86
▁있었으면	-10.8601
▁되는데	-10.8602
▁나을듯	-10.8607
▁ᄒᄃᄃ	-10.8618
복수	-10.8622
아까운영화	-10.8628
▁일부	-10.8628
▁감동적이네요	-10.8629
천원	-10.8632
싫다	-10.8639
밖	-10.8646
별한개	-10.8647
싶은데	-10.8666
▁맞나	-10.867
▁소개	-10.8678
▁아담	-10.8682
▁때리	-10.8683
!!!!!!!!!!!!	-10.8699
처리	-10.8714
픔	-10.8721
▁마지막엔	-10.873
。	-10.8736
셧	-10.8736
쉴	-10.8736
▁브루스	-10.8736
▁화장실	-10.8736
▁각자	-10.8736
▁무거운	-10.8736
▁예측	-10.8739
▁생각해보게	-10.874
▁잃은	-10.874
▁이도저도	-10.8741
▁제외하	-10.8742
▁벗어	-10.8743
▁창피	-10.8745
▁심한	-10.8747
▁요새	-10.8747
▁재미있었습니다	-10.875
ie	-10.8757
맞은	-10.8759
합시다	-10.876
▁다행이다	-10.876
▁빠지는	-10.8764
▁미안하다	-10.8766
해놓고	-10.8771
▁인류	-10.8779
광구	-10.8779
외엔	-10.8808
▁돼지	-10.8809
먹었	-10.8835
▁여신	-10.8836
▁사랑스럽다	-10.8841
~~~~~~	-10.8854
▁어쩌면	-10.8861
포드	-10.8865
▁자극적	-10.8883
잇엇	-10.8897
갠	-10.8905
잊	-10.8907
▁하나님	-10.8907
ᅩ	-10.8907
▁둘째치고	-10.8908
▁러브라인	-10.8908
듦	-10.8908
띠	-10.8908
버렸네	-10.8908
▁언젠가	-10.8908
▁역겹다	-10.8908
▁말그대로	-10.8908
▁오글오글	-10.8908
▁감명깊게	-10.8909
▁향연	-10.8909
▁짜릿	-10.891
▁분량	-10.8912
밑	-10.8913
▁낫겠다	-10.8915
▁엄청나게	-10.8916
▁마시길	-10.8918
▁꼭보세요	-10.8923
▁드림	-10.8927
▁거지같은	-10.8935
▁재미있었는데	-10.8935
것같아	-10.8938
▁가족애	-10.8938
점만점에	-10.8944
▁순수하고	-10.8949
전혀	-10.8953
▁그렇지만	-10.8956
▁답답하다	-10.8956
편집	-10.8958
▁앞서	-10.8964
으러	-10.8968
▁실망스럽	-10.8969
▁빠져서	-10.897
▁극중	-10.8974
였다면	-10.8976
▁시작해서	-10.8976
에비해	-10.8983
▁보겠다	-10.8992
▁보고나니	-10.8993
▁선사	-10.9001
▁소장하고	-10.9001
하겠습니다	-10.9004
▁남성	-10.9009
거에요	-10.9038
▁미국식	-10.9043
하고싶다	-10.9046
싫	-10.9057
룬	-10.9068
▁디카프리오	-10.9083
▁스타워즈	-10.9083
▁흡입력	-10.9083
렀	-10.9083
뺏	-10.9083
퉤	-10.9083
▁아름다워	-10.9083
뤄	-10.9083
밧	-10.9083
츄	-10.9083
▁임창정	-10.9083
▁도데체	-10.9083
▁괜찬	-10.9083
▁아쉬울	-10.9083
▁칭찬	-10.9083
▁스타뎀	-10.9084
잊지못할	-10.9084
▁무간도	-10.9084
▁블루	-10.9084
마누라	-10.9085
▁도둑	-10.9086
▁씁쓸하	-10.9086
▁그려낸	-10.9086
▁고딩	-10.9089
▁개그맨	-10.909
멋잇	-10.9091
▁동영상	-10.9091
▁은근	-10.9092
▁강력	-10.9093
▁따름	-10.9094
핵	-10.9095
▁에효	-10.9095
▁괜찮아	-10.9101
▁귀여워요	-10.9115
▁언제까지	-10.9123
▁들어간	-10.9123
▁멋지게	-10.9124
보고나서	-10.9137
▁첨이다	-10.9144
▁있기	-10.915
▁한번더	-10.9153
▁어설프다	-10.9154
▁넘넘	-10.9155
▁가히	-10.9167
▁두시간	-10.9178
▁그리워	-10.9198
하하하하	-10.9206
▁새벽	-10.9212
▁신선함	-10.9225
▁가시	-10.9229
▁졸았	-10.9253
맙	-10.9262
▁못봐주겠	-10.9262
▁살렸다	-10.9262
▁소름끼치는	-10.9262
▁신하균	-10.9262
▁왕조현	-10.9262
렐	-10.9262
켓	-10.9262
com	-10.9262
▁워낙	-10.9262
▁비행기	-10.9262
▁라이언	-10.9262
▁돈아까워	-10.9266
었구나	-10.9267
▁감동적이에요	-10.9269
▁영원	-10.9269
▁철저	-10.927
▁재밌게봤어요	-10.9276
훌륭	-10.9278
▁흘러가는	-10.928
립니다	-10.9281
▁던져	-10.9283
나왔으면	-10.9288
돈주고	-10.9288
▁감명	-10.929
▁아이들에게	-10.9293
▁안나온다	-10.9298
허무	-10.9298
▁완벽하다	-10.9307
▁다시보기	-10.9308
▁군인	-10.9313
▁공유	-10.9317
▁어이없음	-10.9322
▁말밖에	-10.9328
▁구분	-10.9333
▁아니잖아	-10.9333
더군	-10.9335
▁잼있네요	-10.934
▁몰아	-10.9341
있을까	-10.9344
▁이딴영화	-10.9365
까봐	-10.937
▁살았	-10.9373
▁조연들	-10.9388
비추	-10.9391
▁볼것	-10.94
▁빠졌	-10.9414
▁않았던	-10.9417
▁도시	-10.942
렛	-10.9444
▁movie	-10.9444
▁비쥬얼	-10.9444
▁아기자기	-10.9444
▁알파치노	-10.9444
덮	-10.9444
즉	-10.9444
킴	-10.9444
팩	-10.9444
븐	-10.9444
맺	-10.9444
▁되돌아	-10.9444
▁여러모로	-10.9444
▁김수현	-10.9444
▁비호감	-10.9444
▁일주일	-10.9444
▁격투	-10.9445
▁보지마셈	-10.9445
▁총체적	-10.9445
▁엽기	-10.9445
▁돋보였	-10.9446
▁픽사	-10.9447
▁나와야	-10.9448
▁혼란	-10.9453
▁좋겠습니다	-10.9455
▁부활	-10.9461
▁가짜	-10.9462
▁진지하게	-10.9466
▁충분하다	-10.9466
▁장난하나	-10.9467
▁다운받아서	-10.9469
▁뻔한스토리	-10.9469
tv	-10.9477
▁케미	-10.9479
예술	-10.9483
▁독특하고	-10.9484
▁역사상	-10.9485
▁부산	-10.9488
▁잃었	-10.9505
▁개봉당시	-10.951
▁만났	-10.9526
물론	-10.9526
지루하다	-10.9541
▁당황	-10.9543
▁전편보다	-10.9552
되길	-10.9561
▁별로였다	-10.9562
▁단점	-10.9577
망작	-10.9594
▁흉내	-10.9596
▁정체	-10.9611
▁있긴	-10.9613
▁여배우들	-10.9622
▁미스캐스팅	-10.9629
▁섬뜩	-10.9629
밉	-10.9629
▁밝혀	-10.9629
▁닥치고	-10.9629
▁입장에서	-10.9629
▁한효주	-10.9629
▁is	-10.9629
▁킬러	-10.963
▁거부감	-10.963
▁혁명	-10.963
▁난해한	-10.9632
▁오래전에	-10.9634
▁묘한	-10.9635
▁말씀	-10.9638
▁에라이	-10.9642
▁중학생	-10.9643
▁모욕	-10.9651
▁놀란	-10.9652
▁속았다	-10.9653
▁흥분	-10.9655
맞음	-10.9655
▁조낸	-10.9656
▁울었어요	-10.9657
▁최후	-10.9657
샘	-10.9661
▁충격적인	-10.9661
판타지	-10.9663
잼씀	-10.9668
▁작화	-10.9672
경찰	-10.9676
▁준비	-10.9677
▁미녀	-10.9679
▁위트	-10.9686
▁좋아하지만	-10.9695
▁당장	-10.9695
▁멋져	-10.9705
▁모르겠네	-10.9714
ost	-10.9732
실력	-10.9747
us	-10.9757
▁살아야	-10.9759
긴했지만	-10.978
▁막판	-10.9791
해야하나	-10.98
▁범죄자	-10.9803
▁싫어하는	-10.9804
행위	-10.9808
▁섬세한	-10.9818
▁시종일관	-10.9818
▁유치찬란	-10.9818
▁뒤죽박죽	-10.9818
퀸	-10.9818
▁바탕으로	-10.9818
▁클래식	-10.9818
▁미스터리	-10.9818
▁ᄌᄂ	-10.9819
▁질질끌	-10.982
▁더러워	-10.982
외에는	-10.9821
▁레옹	-10.9821
▁풀어낸	-10.9822
▁억지스럽고	-10.9823
▁직업	-10.9823
졌으면	-10.9824
▁좋으나	-10.9829
▁승부	-10.9834
▁한심하다	-10.9839
▁고문	-10.9841
▁보고있는데	-10.9845
였구나	-10.9845
프로그램	-10.9858
▁웃었다	-10.9861
▁연기잘하	-10.9862
▁귀여웠	-10.987
▁분장	-10.9872
보지마라	-10.9881
돌려	-10.9901
▁사회적	-10.992
▁완성	-10.9944
▁짜증났	-11.0001
둑	-11.0008
쿡	-11.001
핫	-11.001
▁엔딩크레딧	-11.001
샌	-11.001
캡	-11.001
훼	-11.001
됫	-11.001
쌈	-11.001
튜	-11.001
혔	-11.001
오랫동안	-11.001
▁강동원	-11.001
▁몽환적	-11.001
▁잔잔함	-11.001
▁극혐	-11.0011
▁그럴싸	-11.0012
▁나타나	-11.0013
ᄀᄀ	-11.0014
▁재앙	-11.0019
▁로망	-11.0023
▁개꿀잼	-11.0025
분짜리	-11.0028
셨으면	-11.0035
▁매번	-11.0044
▁소통	-11.0045
▁비록	-11.005
얼마나	-11.0058
▁믿음	-11.0059
로맨스	-11.006
병맛	-11.0064
어떤	-11.0066
봣어요	-11.0072
▁괜찮네요	-11.0083
결국	-11.0083
각본	-11.0092
그런데	-11.0093
▁아이유	-11.0095
자꾸	-11.0113
▁믿어	-11.0127
▁알게되	-11.0127
누님	-11.0128
▁4.44	-11.014
la	-11.0169
삼류	-11.0179
영활	-11.0199
▁욕먹	-11.0203
렴	-11.0206
▁점수준것들	-11.0206
쏴	-11.0206
캠	-11.0206
푼	-11.0206
▁오그라들	-11.0206
▁떡밥	-11.0206
▁머릿속	-11.0206
▁평점조절	-11.0206
▁김혜수	-11.0206
▁피아노	-11.0206
▁섬세하	-11.0206
▁기발한	-11.0206
▁두고두고	-11.0207
생겨서	-11.0207
▁크리스찬	-11.0208
▁치밀하	-11.0208
▁민족	-11.021
ter	-11.0215
명성에	-11.0218
▁감동적입니다	-11.0221
▁못하겠다	-11.0222
▁모자라	-11.0223
▁태국	-11.0224
▁늙어	-11.0225
id	-11.0225
잭슨	-11.0243
▁싶습니다	-11.0248
▁재방	-11.0249
▁학생들	-11.0253
덕분에	-11.0262
댓글	-11.0263
저런	-11.0279
죽이고	-11.0287
빠짐	-11.0317
very	-11.0347
깐	-11.0352
▁배우분들	-11.0375
현실적	-11.0383
섯	-11.0391
야말로	-11.0394
감명깊	-11.0405
썸	-11.0406
짙	-11.0406
▁시간때우기	-11.0406
▁어정쩡	-11.0406
▁오그라드는	-11.0406
▁웃겼다	-11.0406
겻	-11.0406
쌓	-11.0406
▁아마추어	-11.0406
덧	-11.0406
둠	-11.0406
뜸	-11.0406
쭈	-11.0406
▁내취향	-11.0406
▁마찬가지	-11.0406
▁납득	-11.0406
▁안타까움	-11.0406
▁원숭이	-11.0406
▁펼쳐	-11.0406
▁수면제	-11.0406
흑흑	-11.0407
▁쉬운	-11.0407
억지스럽	-11.0407
▁로맨틱코미디	-11.0408
▁전성기	-11.0409
▁자연스러운	-11.041
▁방황	-11.0411
▁돌아보게	-11.0412
▁시험	-11.0417
▁세계관	-11.0423
▁처음본다	-11.0427
▁괜찮았던	-11.0429
▁느껴질	-11.0429
▁지옥	-11.0435
▁보고싶은데	-11.0443
▁불쌍하	-11.0445
▁보게되는	-11.0457
▁채워	-11.0464
쩝	-11.047
멀	-11.047
그나마	-11.0471
우리나라	-11.0473
결혼	-11.0475
▁살아남	-11.052
투성이	-11.0537
▁미쳐	-11.0574
av	-11.058
뻑	-11.061
▁bad	-11.061
▁런닝타임	-11.061
▁즐거움	-11.061
렘	-11.061
왈	-11.061
팽	-11.061
▁엄정화	-11.061
▁짬뽕	-11.061
톡	-11.061
▁상큼	-11.0612
▁멋짐	-11.0615
▁파격적	-11.0616
vs	-11.0616
페이스	-11.0619
▁사이코	-11.0619
▁권력	-11.0624
▁보여줄	-11.0627
▁고증	-11.0627
▁no	-11.0631
▁채우	-11.0635
학년때	-11.0647
▁마블	-11.0651
애니메이션	-11.0683
검사	-11.0715
▁잔인함	-11.0729
▁브레	-11.0758
작가님	-11.0788
잊혀지	-11.0799
▁허허	-11.0815
혐	-11.0817
▁킬링	-11.0818
ᄐ	-11.0818
▁고등학생	-11.0818
▁크레딧	-11.0818
뚫	-11.0818
랏	-11.0818
얀	-11.0818
▁그냥저냥	-11.0818
▁세련된	-11.0818
▁한석규	-11.0818
▁데이빗	-11.0818
▁설경구	-11.0818
시끄럽	-11.0818
▁스페인	-11.0818
▁감성팔이	-11.0818
▁완젼	-11.0818
▁가슴아프	-11.0819
▁망쳐놓	-11.0819
▁드니로	-11.0819
▁바란다	-11.0819
▁온갖	-11.082
▁말이필요없다	-11.0822
▁억지스런	-11.0825
▁팬들	-11.0828
▁진행되는	-11.0833
냄	-11.103
뎀	-11.1031
믄	-11.1031
팝	-11.1031
꽁	-11.1031
좆	-11.1031
템	-11.1031
ᄊ	-11.1031
뜯	-11.1031
뼈	-11.1031
옷	-11.1122
훨	-11.1131
Y	-11.1249
깁	-11.1249
숲	-11.1249
늬	-11.1249
쇄	-11.1249
첫	-11.1349
뗄	-11.1465
밋	-11.1466
봇	-11.147
턱	-11.1471
곁	-11.1471
칫	-11.1471
댓	-11.1696
넷	-11.1698
썬	-11.1698
졋	-11.1698
넓	-11.1698
륵	-11.1698
잣	-11.1698
훔	-11.1698
넌	-11.1825
킥	-11.1931
룸	-11.1931
삘	-11.1931
짖	-11.1931
녁	-11.1931
멕	-11.1931
☆	-11.1931
큼	-11.2067
즌	-11.2155
흉	-11.2168
헨	-11.2169
삽	-11.2169
훌	-11.2169
쇠	-11.2169
헝	-11.2169
릅	-11.2169
긍	-11.2413
떳	-11.2413
궈	-11.2413
훗	-11.2413
쫌	-11.2571
풋	-11.2662
끓	-11.2663
꾹	-11.2663
묶	-11.2663
탠	-11.2663
겸	-11.2663
뎁	-11.2663
펠	-11.2663
겄	-11.2663
뎌	-11.2663
줫	-11.2663
썩	-11.2829
믹	-11.2916
끗	-11.2919
딕	-11.2919
뉘	-11.2919
앜	-11.2919
펴	-11.2919
밨	-11.2919
쉣	-11.2919
뿔	-11.3175
낌	-11.318
깡	-11.3182
뚜	-11.3182
벙	-11.3182
빤	-11.3182
웰	-11.3182
윽	-11.3182
껍	-11.3182
갇	-11.3182
봅	-11.3451
쎄	-11.3451
뜩	-11.3452
펼	-11.3452
둬	-11.3452
릉	-11.3452
쏙	-11.3452
욬	-11.3452
럿	-11.3452
핏	-11.3452
옵	-11.373
↓	-11.373
펀	-11.373
낙	-11.3961
뷔	-11.4016
뱅	-11.4016
켈	-11.4016
꼇	-11.4016
룹	-11.4016
밸	-11.4016
툰	-11.4016
쩐	-11.4225
넼	-11.431
둡	-11.431
쌩	-11.431
맷	-11.431
웩	-11.431
탭	-11.431
흰	-11.431
깎	-11.4577
긔	-11.4613
꺄	-11.4613
짬	-11.4613
챔	-11.4613
콕	-11.4613
텀	-11.4613
꿨	-11.4613
핳	-11.4926
댐	-11.4926
쉰	-11.4926
쏠	-11.4926
잎	-11.4926
톨	-11.4926
人	-11.4926
댕	-11.4926
엎	-11.4926
흙	-11.4926
률	-11.5248
엌	-11.5248
Z	-11.5248
q	-11.5248
눠	-11.5248
샀	-11.5248
엣	-11.5248
쿄	-11.5248
펄	-11.5248
ᅦ	-11.5248
낳	-11.5577
줍	-11.558
띵	-11.5582
됌	-11.5582
뒀	-11.5582
쒸	-11.5582
췄	-11.5582
칩	-11.5582
댈	-11.5582
됴	-11.5582
뱉	-11.5582
샷	-11.5582
샹	-11.5582
셰	-11.5582
숫	-11.5582
컵	-11.5582
횽	-11.5582
#	-11.5582
쵝	-11.5926
죤	-11.5926
킷	-11.5926
샬	-11.5926
탔	-11.5926
햄	-11.5926
쌀	-11.5926
륙	-11.5926
듀	-11.5926
냅	-11.5926
웬	-11.5929
캬	-11.5934
욜	-11.6283
ᄑ	-11.6284
쫙	-11.6284
뺨	-11.6284
촉	-11.6284
끊	-11.6301
뻘	-11.6654
꽂	-11.6654
쌔	-11.6654
쑤	-11.6654
쬐	-11.6654
췌	-11.6654
귓	-11.6654
뇨	-11.6654
닦	-11.6654
솟	-11.6654
슐	-11.6654
씌	-11.6654
욧	-11.6654
젓	-11.6654
힛	-11.6654
○	-11.6654
뀌	-11.7035
뭇	-11.7038
펐	-11.7038
괘	-11.7038
돕	-11.7038
뺀	-11.7038
쨩	-11.7038
퀀	-11.7038
쪄	-11.7039
팡	-11.7039
홉	-11.7039
W	-11.7089
꽤	-11.7091
훅	-11.7438
·	-11.7438
ᅭ	-11.7438
’	-11.7438
썽	-11.7438
캅	-11.7438
꿋	-11.7438
쌤	-11.7438
ᆞ	-11.7439
롬	-11.7439
녹	-11.7506
짠	-11.7507
쩡	-11.7855
륭	-11.7855
밭	-11.7855
좁	-11.7855
퍽	-11.7855
햐	-11.7855
얹	-11.7855
\	-11.7855
[	-11.7941
밌	-11.8285
찜	-11.829
갤	-11.829
깬	-11.829
늠	-11.829
댔	-11.829
뛴	-11.829
얕	-11.829
엥	-11.829
몹	-11.829
꽝	-11.8392
늑	-11.8743
걱	-11.8744
뭥	-11.8744
힙	-11.8744
‘	-11.8744
꺅	-11.8744
낰	-11.8744
뜰	-11.8744
힝	-11.8744
갸	-11.8744
꼼	-11.8744
낱	-11.8744
놉	-11.8744
밈	-11.8744
붐	-11.8744
썅	-11.8744
얌	-11.8744
쵸	-11.8744
퀼	-11.8744
윙	-11.8744
덥	-11.8745
|	-11.9221
ᅧ	-11.9221
뤘	-11.9221
붓	-11.9221
Q	-11.9221
겜	-11.9221
됀	-11.9221
앳	-11.9221
웁	-11.9221
쟝	-11.9221
짭	-11.9221
굼	-11.9221
깽	-11.9221
딥	-11.9221
슌	-11.9221
얻	-11.9368
헬	-11.9371
캔	-11.972
첼	-11.9721
곸	-11.9721
뤽	-11.9721
乃	-11.9721
꾀	-11.9721
뎈	-11.9721
씽	-11.9721
팜	-11.9721
젬	-11.9721
싯	-11.9721
ᅣ	-11.9721
잭	-11.9897
떤	-12.0223
윗	-12.0247
꿉	-12.0247
뚤	-12.0247
뵈	-12.0247
빽	-12.0247
섰	-12.0247
횡	-12.0247
휼	-12.0247
“	-12.0247
댜	-12.0247
돠	-12.0247
푹	-12.0454
촬	-12.0798
얔	-12.0803
떴	-12.0803
쉘	-12.0803
→	-12.0803
甲	-12.0803
땟	-12.0803
뱃	-12.0803
빔	-12.0803
쁠	-12.0803
쑈	-12.0803
욯	-12.0803
융	-12.0803
읎	-12.0803
짚	-12.0803
쿤	-12.0803
샴	-12.0803
텍	-12.0803
맡	-12.1035
뺐	-12.1391
퀘	-12.1391
댁	-12.1391
뺴	-12.1391
숴	-12.1391
욘	-12.1391
웡	-12.1391
쾅	-12.1391
퉷	-12.1391
훤	-12.1391
뇬	-12.1391
뭍	-12.1391
핡	-12.1391
룻	-12.1391
헷	-12.2016
”	-12.2016
♬	-12.2016
갚	-12.2016
뮬	-12.2016
웹	-12.2016
쟤	-12.2016
젝	-12.2016
죵	-12.2016
、	-12.2016
걔	-12.2016
귄	-12.2016
됏	-12.2016
쨔	-12.2016
넉	-12.2016
헛	-12.2333
無	-12.2682
멧	-12.2682
맬	-12.2682
뷁	-12.2682
좃	-12.2682
겅	-12.2682
겔	-12.2682
믓	-12.2682
뿅	-12.2682
쪙	-12.2682
칵	-12.2682
캣	-12.2682
괄	-12.2682
벡	-12.2682
쏜	-12.2682
킁	-12.2682
넥	-12.2682
땜	-12.3304
굽	-12.3397
륨	-12.3397
꿰	-12.3397
넴	-12.3397
뤠	-12.3397
얍	-12.3397
잌	-12.3397
잰	-12.3397
첸	-12.3397
풉	-12.3397
휙	-12.3397
흣	-12.3397
슥	-12.3397
뒷	-12.3816
깼	-12.4166
끽	-12.4166
뺑	-12.4166
쫑	-12.4166
넛	-12.4166
볶	-12.4166
뿍	-12.4166
샵	-12.4166
찼	-12.4166
쳇	-12.4166
텨	-12.4166
퐁	-12.4166
꼐	-12.4166
넝	-12.4166
돔	-12.4166
렜	-12.4166
쒯	-12.4166
춥	-12.4166
툴	-12.4166
캄	-12.4999
괸	-12.4999
굶	-12.4999
냔	-12.4999
눅	-12.4999
뒹	-12.4999
뿡	-12.4999
졷	-12.4999
팰	-12.4999
갯	-12.4999
넨	-12.4999
뎃	-12.4999
썹	-12.4999
쎈	-12.4999
콱	-12.4999
햅	-12.4999
헴	-12.4999
욥	-12.4999
끙	-12.4999
챈	-12.4999
컥	-12.5906
밓	-12.5908
뻗	-12.5908
곀	-12.5908
멱	-12.5908
벳	-12.5908
혓	-12.5908
뒈	-12.5908
줏	-12.5908
눕	-12.5908
헿	-12.5908
읭	-12.5908
}	-12.5909
{	-12.5909
갘	-12.6908
ᆪ	-12.6908
』	-12.6908
쿼	-12.6908
펭	-12.6908
ᄈ	-12.6908
死	-12.6908
옛	-12.7668
킵	-12.9266
웍	-12.9269
텝	-13.6805
궤	-14.0083
故	-14.0084
홥	-14.0085
촛	-14.0086
잴	-14.0087
윅	-14.0088
땔	-14.0089
닠	-14.009
뀜	-14.0091
껑	-14.0092
껌	-14.0093
훑	-14.0094
츤	-14.0095
앍	-14.0096
덱	-14.0097
뉜	-14.0098
낍	-14.0099
샛	-14.01
쁩	-14.0101
꺾	-14.0102
괞	-14.0103
휠	-14.0104
헠	-14.0105
좔	-14.0106
횟	-14.0107
핥	-14.0108
폄	-14.0109
큽	-14.011
촘	-14.0111
옜	-14.0112
샐	-14.0113
뀔	-14.0114
휩	-14.0115
큘	-14.0116
콥	-14.0117
뵙	-14.0118
멎	-14.0119
긁	-14.012
딪	-14.0121
꺽	-14.0122
낡	-14.0123
릎	-14.0124
펏	-14.0125
씻	-14.0126
핍	-14.0127
녔	-14.0128
굵	-14.0129
켠	-14.013
셸	-14.0131
쥔	-14.0132
닳	-14.0133
왼	-14.0134
픕	-14.0135
딨	-14.0136
넋	-14.0137
빚	-14.0138
뀐	-14.0139
꽥	-14.014
쫒	-14.0141
앓	-14.0142
뭡	-14.0143
쨋	-14.0144
얽	-14.0145
썻	-14.0146
꽉	-14.0147
텅	-14.0148
멤	-14.0149
솜	-14.015
땠	-14.0151
붉	-14.0152
밟	-14.0153
홧	-14.0154
틋	-14.0155
뿜	-14.0156
핸	-14.0157
컸	-14.0158
옮	-14.0159
뻣	-14.016
맑	-14.0161
찢	-14.0162
빕	-14.0163
엮	-14.0164
팠	-14.0165
쨌	-14.0166
쫄	-14.0167
틸	-14.0168
띄	-14.0169
겪	-14.017
껐	-14.0171
왤	-14.0172
뻤	-14.0173
쏟	-14.0174
닙	-14.0175
딧	-14.0176
꿔	-14.0177
섞	-14.0178
튀	-14.0179
듭	-14.018
획	-14.0181
겉	-14.0182
쁨	-14.0183
됩	-14.0184
늦	-14.0185
볍	-14.0186
찝	-14.0187
묻	-14.0188
슷	-14.0188
굉	-14.0189
똑	-14.019
겼	-14.0191
랐	-14.0192
깊	-14.0193
떻	-14.0194
렸	-14.0195
렇	-14.0196
"	-14.0197
봤	-14.0198
탤	-14.0198
